{
  "version": "1.0",
  "truncation": null,
  "padding": null,
  "added_tokens": [
    {
      "id": 0,
      "content": "<unk>",
      "single_word": false,
      "lstrip": false,
      "rstrip": false,
      "normalized": false,
      "special": true
    },
    {
      "id": 1,
      "content": "<s>",
      "single_word": false,
      "lstrip": false,
      "rstrip": false,
      "normalized": false,
      "special": true
    },
    {
      "id": 2,
      "content": "</s>",
      "single_word": false,
      "lstrip": false,
      "rstrip": false,
      "normalized": false,
      "special": true
    },
    {
      "id": 3,
      "content": "<pad>",
      "single_word": false,
      "lstrip": false,
      "rstrip": false,
      "normalized": false,
      "special": true
    },
    {
      "id": 4,
      "content": "<|system_start|>",
      "single_word": false,
      "lstrip": false,
      "rstrip": false,
      "normalized": false,
      "special": true
    },
    {
      "id": 5,
      "content": "<|system_end|>",
      "single_word": false,
      "lstrip": false,
      "rstrip": false,
      "normalized": false,
      "special": true
    },
    {
      "id": 6,
      "content": "<|developer_start|>",
      "single_word": false,
      "lstrip": false,
      "rstrip": false,
      "normalized": false,
      "special": true
    },
    {
      "id": 7,
      "content": "<|developer_end|>",
      "single_word": false,
      "lstrip": false,
      "rstrip": false,
      "normalized": false,
      "special": true
    },
    {
      "id": 8,
      "content": "<|user_start|>",
      "single_word": false,
      "lstrip": false,
      "rstrip": false,
      "normalized": false,
      "special": true
    },
    {
      "id": 9,
      "content": "<|user_end|>",
      "single_word": false,
      "lstrip": false,
      "rstrip": false,
      "normalized": false,
      "special": true
    },
    {
      "id": 10,
      "content": "<|assistant_start|>",
      "single_word": false,
      "lstrip": false,
      "rstrip": false,
      "normalized": false,
      "special": true
    },
    {
      "id": 11,
      "content": "<|assistant_end|>",
      "single_word": false,
      "lstrip": false,
      "rstrip": false,
      "normalized": false,
      "special": true
    },
    {
      "id": 12,
      "content": "<|inner_prefix|>",
      "single_word": false,
      "lstrip": false,
      "rstrip": false,
      "normalized": false,
      "special": true
    },
    {
      "id": 13,
      "content": "<|inner_suffix|>",
      "single_word": false,
      "lstrip": false,
      "rstrip": false,
      "normalized": false,
      "special": true
    },
    {
      "id": 14,
      "content": "<|tools_prefix|>",
      "single_word": false,
      "lstrip": false,
      "rstrip": false,
      "normalized": false,
      "special": true
    },
    {
      "id": 15,
      "content": "<|tools_suffix|>",
      "single_word": false,
      "lstrip": false,
      "rstrip": false,
      "normalized": false,
      "special": true
    },
    {
      "id": 16,
      "content": "<|tool_output_start|>",
      "single_word": false,
      "lstrip": false,
      "rstrip": false,
      "normalized": false,
      "special": true
    },
    {
      "id": 17,
      "content": "<|tool_output_end|>",
      "single_word": false,
      "lstrip": false,
      "rstrip": false,
      "normalized": false,
      "special": true
    },
    {
      "id": 18,
      "content": "<|image|>",
      "single_word": false,
      "lstrip": false,
      "rstrip": false,
      "normalized": false,
      "special": true
    },
    {
      "id": 19,
      "content": "<|audio|>",
      "single_word": false,
      "lstrip": false,
      "rstrip": false,
      "normalized": false,
      "special": true
    },
    {
      "id": 20,
      "content": "<reflection>",
      "single_word": false,
      "lstrip": false,
      "rstrip": false,
      "normalized": false,
      "special": true
    },
    {
      "id": 21,
      "content": "</reflection>",
      "single_word": false,
      "lstrip": false,
      "rstrip": false,
      "normalized": false,
      "special": true
    },
    {
      "id": 22,
      "content": "<think>",
      "single_word": false,
      "lstrip": false,
      "rstrip": false,
      "normalized": false,
      "special": true
    },
    {
      "id": 23,
      "content": "</think>",
      "single_word": false,
      "lstrip": false,
      "rstrip": false,
      "normalized": false,
      "special": true
    },
    {
      "id": 24,
      "content": "<iban-pii>",
      "single_word": false,
      "lstrip": false,
      "rstrip": false,
      "normalized": false,
      "special": true
    },
    {
      "id": 25,
      "content": "<email-pii>",
      "single_word": false,
      "lstrip": false,
      "rstrip": false,
      "normalized": false,
      "special": true
    },
    {
      "id": 26,
      "content": "<ip-pii>",
      "single_word": false,
      "lstrip": false,
      "rstrip": false,
      "normalized": false,
      "special": true
    },
    {
      "id": 27,
      "content": "<SPECIAL_27>",
      "single_word": false,
      "lstrip": false,
      "rstrip": false,
      "normalized": false,
      "special": true
    },
    {
      "id": 28,
      "content": "<SPECIAL_28>",
      "single_word": false,
      "lstrip": false,
      "rstrip": false,
      "normalized": false,
      "special": true
    },
    {
      "id": 29,
      "content": "<SPECIAL_29>",
      "single_word": false,
      "lstrip": false,
      "rstrip": false,
      "normalized": false,
      "special": true
    },
    {
      "id": 30,
      "content": "<SPECIAL_30>",
      "single_word": false,
      "lstrip": false,
      "rstrip": false,
      "normalized": false,
      "special": true
    },
    {
      "id": 31,
      "content": "<SPECIAL_31>",
      "single_word": false,
      "lstrip": false,
      "rstrip": false,
      "normalized": false,
      "special": true
    },
    {
      "id": 32,
      "content": "<SPECIAL_32>",
      "single_word": false,
      "lstrip": false,
      "rstrip": false,
      "normalized": false,
      "special": true
    },
    {
      "id": 33,
      "content": "<SPECIAL_33>",
      "single_word": false,
      "lstrip": false,
      "rstrip": false,
      "normalized": false,
      "special": true
    },
    {
      "id": 34,
      "content": "<SPECIAL_34>",
      "single_word": false,
      "lstrip": false,
      "rstrip": false,
      "normalized": false,
      "special": true
    },
    {
      "id": 35,
      "content": "<SPECIAL_35>",
      "single_word": false,
      "lstrip": false,
      "rstrip": false,
      "normalized": false,
      "special": true
    },
    {
      "id": 36,
      "content": "<SPECIAL_36>",
      "single_word": false,
      "lstrip": false,
      "rstrip": false,
      "normalized": false,
      "special": true
    },
    {
      "id": 37,
      "content": "<SPECIAL_37>",
      "single_word": false,
      "lstrip": false,
      "rstrip": false,
      "normalized": false,
      "special": true
    },
    {
      "id": 38,
      "content": "<SPECIAL_38>",
      "single_word": false,
      "lstrip": false,
      "rstrip": false,
      "normalized": false,
      "special": true
    },
    {
      "id": 39,
      "content": "<SPECIAL_39>",
      "single_word": false,
      "lstrip": false,
      "rstrip": false,
      "normalized": false,
      "special": true
    },
    {
      "id": 40,
      "content": "<SPECIAL_40>",
      "single_word": false,
      "lstrip": false,
      "rstrip": false,
      "normalized": false,
      "special": true
    },
    {
      "id": 41,
      "content": "<SPECIAL_41>",
      "single_word": false,
      "lstrip": false,
      "rstrip": false,
      "normalized": false,
      "special": true
    },
    {
      "id": 42,
      "content": "<SPECIAL_42>",
      "single_word": false,
      "lstrip": false,
      "rstrip": false,
      "normalized": false,
      "special": true
    },
    {
      "id": 43,
      "content": "<SPECIAL_43>",
      "single_word": false,
      "lstrip": false,
      "rstrip": false,
      "normalized": false,
      "special": true
    },
    {
      "id": 44,
      "content": "<SPECIAL_44>",
      "single_word": false,
      "lstrip": false,
      "rstrip": false,
      "normalized": false,
      "special": true
    },
    {
      "id": 45,
      "content": "<SPECIAL_45>",
      "single_word": false,
      "lstrip": false,
      "rstrip": false,
      "normalized": false,
      "special": true
    },
    {
      "id": 46,
      "content": "<SPECIAL_46>",
      "single_word": false,
      "lstrip": false,
      "rstrip": false,
      "normalized": false,
      "special": true
    },
    {
      "id": 47,
      "content": "<SPECIAL_47>",
      "single_word": false,
      "lstrip": false,
      "rstrip": false,
      "normalized": false,
      "special": true
    },
    {
      "id": 48,
      "content": "<SPECIAL_48>",
      "single_word": false,
      "lstrip": false,
      "rstrip": false,
      "normalized": false,
      "special": true
    },
    {
      "id": 49,
      "content": "<SPECIAL_49>",
      "single_word": false,
      "lstrip": false,
      "rstrip": false,
      "normalized": false,
      "special": true
    },
    {
      "id": 50,
      "content": "<SPECIAL_50>",
      "single_word": false,
      "lstrip": false,
      "rstrip": false,
      "normalized": false,
      "special": true
    },
    {
      "id": 51,
      "content": "<SPECIAL_51>",
      "single_word": false,
      "lstrip": false,
      "rstrip": false,
      "normalized": false,
      "special": true
    },
    {
      "id": 52,
      "content": "<SPECIAL_52>",
      "single_word": false,
      "lstrip": false,
      "rstrip": false,
      "normalized": false,
      "special": true
    },
    {
      "id": 53,
      "content": "<SPECIAL_53>",
      "single_word": false,
      "lstrip": false,
      "rstrip": false,
      "normalized": false,
      "special": true
    },
    {
      "id": 54,
      "content": "<SPECIAL_54>",
      "single_word": false,
      "lstrip": false,
      "rstrip": false,
      "normalized": false,
      "special": true
    },
    {
      "id": 55,
      "content": "<SPECIAL_55>",
      "single_word": false,
      "lstrip": false,
      "rstrip": false,
      "normalized": false,
      "special": true
    },
    {
      "id": 56,
      "content": "<SPECIAL_56>",
      "single_word": false,
      "lstrip": false,
      "rstrip": false,
      "normalized": false,
      "special": true
    },
    {
      "id": 57,
      "content": "<SPECIAL_57>",
      "single_word": false,
      "lstrip": false,
      "rstrip": false,
      "normalized": false,
      "special": true
    },
    {
      "id": 58,
      "content": "<SPECIAL_58>",
      "single_word": false,
      "lstrip": false,
      "rstrip": false,
      "normalized": false,
      "special": true
    },
    {
      "id": 59,
      "content": "<SPECIAL_59>",
      "single_word": false,
      "lstrip": false,
      "rstrip": false,
      "normalized": false,
      "special": true
    },
    {
      "id": 60,
      "content": "<SPECIAL_60>",
      "single_word": false,
      "lstrip": false,
      "rstrip": false,
      "normalized": false,
      "special": true
    },
    {
      "id": 61,
      "content": "<SPECIAL_61>",
      "single_word": false,
      "lstrip": false,
      "rstrip": false,
      "normalized": false,
      "special": true
    },
    {
      "id": 62,
      "content": "<SPECIAL_62>",
      "single_word": false,
      "lstrip": false,
      "rstrip": false,
      "normalized": false,
      "special": true
    },
    {
      "id": 63,
      "content": "<SPECIAL_63>",
      "single_word": false,
      "lstrip": false,
      "rstrip": false,
      "normalized": false,
      "special": true
    },
    {
      "id": 64,
      "content": "<SPECIAL_64>",
      "single_word": false,
      "lstrip": false,
      "rstrip": false,
      "normalized": false,
      "special": true
    },
    {
      "id": 65,
      "content": "<SPECIAL_65>",
      "single_word": false,
      "lstrip": false,
      "rstrip": false,
      "normalized": false,
      "special": true
    },
    {
      "id": 66,
      "content": "<SPECIAL_66>",
      "single_word": false,
      "lstrip": false,
      "rstrip": false,
      "normalized": false,
      "special": true
    },
    {
      "id": 67,
      "content": "<SPECIAL_67>",
      "single_word": false,
      "lstrip": false,
      "rstrip": false,
      "normalized": false,
      "special": true
    },
    {
      "id": 68,
      "content": "<SPECIAL_68>",
      "single_word": false,
      "lstrip": false,
      "rstrip": false,
      "normalized": false,
      "special": true
    },
    {
      "id": 69,
      "content": "<SPECIAL_69>",
      "single_word": false,
      "lstrip": false,
      "rstrip": false,
      "normalized": false,
      "special": true
    },
    {
      "id": 70,
      "content": "<SPECIAL_70>",
      "single_word": false,
      "lstrip": false,
      "rstrip": false,
      "normalized": false,
      "special": true
    },
    {
      "id": 71,
      "content": "<SPECIAL_71>",
      "single_word": false,
      "lstrip": false,
      "rstrip": false,
      "normalized": false,
      "special": true
    },
    {
      "id": 72,
      "content": "<SPECIAL_72>",
      "single_word": false,
      "lstrip": false,
      "rstrip": false,
      "normalized": false,
      "special": true
    },
    {
      "id": 73,
      "content": "<SPECIAL_73>",
      "single_word": false,
      "lstrip": false,
      "rstrip": false,
      "normalized": false,
      "special": true
    },
    {
      "id": 74,
      "content": "<SPECIAL_74>",
      "single_word": false,
      "lstrip": false,
      "rstrip": false,
      "normalized": false,
      "special": true
    },
    {
      "id": 75,
      "content": "<SPECIAL_75>",
      "single_word": false,
      "lstrip": false,
      "rstrip": false,
      "normalized": false,
      "special": true
    },
    {
      "id": 76,
      "content": "<SPECIAL_76>",
      "single_word": false,
      "lstrip": false,
      "rstrip": false,
      "normalized": false,
      "special": true
    },
    {
      "id": 77,
      "content": "<SPECIAL_77>",
      "single_word": false,
      "lstrip": false,
      "rstrip": false,
      "normalized": false,
      "special": true
    },
    {
      "id": 78,
      "content": "<SPECIAL_78>",
      "single_word": false,
      "lstrip": false,
      "rstrip": false,
      "normalized": false,
      "special": true
    },
    {
      "id": 79,
      "content": "<SPECIAL_79>",
      "single_word": false,
      "lstrip": false,
      "rstrip": false,
      "normalized": false,
      "special": true
    },
    {
      "id": 80,
      "content": "<SPECIAL_80>",
      "single_word": false,
      "lstrip": false,
      "rstrip": false,
      "normalized": false,
      "special": true
    },
    {
      "id": 81,
      "content": "<SPECIAL_81>",
      "single_word": false,
      "lstrip": false,
      "rstrip": false,
      "normalized": false,
      "special": true
    },
    {
      "id": 82,
      "content": "<SPECIAL_82>",
      "single_word": false,
      "lstrip": false,
      "rstrip": false,
      "normalized": false,
      "special": true
    },
    {
      "id": 83,
      "content": "<SPECIAL_83>",
      "single_word": false,
      "lstrip": false,
      "rstrip": false,
      "normalized": false,
      "special": true
    },
    {
      "id": 84,
      "content": "<SPECIAL_84>",
      "single_word": false,
      "lstrip": false,
      "rstrip": false,
      "normalized": false,
      "special": true
    },
    {
      "id": 85,
      "content": "<SPECIAL_85>",
      "single_word": false,
      "lstrip": false,
      "rstrip": false,
      "normalized": false,
      "special": true
    },
    {
      "id": 86,
      "content": "<SPECIAL_86>",
      "single_word": false,
      "lstrip": false,
      "rstrip": false,
      "normalized": false,
      "special": true
    },
    {
      "id": 87,
      "content": "<SPECIAL_87>",
      "single_word": false,
      "lstrip": false,
      "rstrip": false,
      "normalized": false,
      "special": true
    },
    {
      "id": 88,
      "content": "<SPECIAL_88>",
      "single_word": false,
      "lstrip": false,
      "rstrip": false,
      "normalized": false,
      "special": true
    },
    {
      "id": 89,
      "content": "<SPECIAL_89>",
      "single_word": false,
      "lstrip": false,
      "rstrip": false,
      "normalized": false,
      "special": true
    },
    {
      "id": 90,
      "content": "<SPECIAL_90>",
      "single_word": false,
      "lstrip": false,
      "rstrip": false,
      "normalized": false,
      "special": true
    },
    {
      "id": 91,
      "content": "<SPECIAL_91>",
      "single_word": false,
      "lstrip": false,
      "rstrip": false,
      "normalized": false,
      "special": true
    },
    {
      "id": 92,
      "content": "<SPECIAL_92>",
      "single_word": false,
      "lstrip": false,
      "rstrip": false,
      "normalized": false,
      "special": true
    },
    {
      "id": 93,
      "content": "<SPECIAL_93>",
      "single_word": false,
      "lstrip": false,
      "rstrip": false,
      "normalized": false,
      "special": true
    },
    {
      "id": 94,
      "content": "<SPECIAL_94>",
      "single_word": false,
      "lstrip": false,
      "rstrip": false,
      "normalized": false,
      "special": true
    },
    {
      "id": 95,
      "content": "<SPECIAL_95>",
      "single_word": false,
      "lstrip": false,
      "rstrip": false,
      "normalized": false,
      "special": true
    },
    {
      "id": 96,
      "content": "<SPECIAL_96>",
      "single_word": false,
      "lstrip": false,
      "rstrip": false,
      "normalized": false,
      "special": true
    },
    {
      "id": 97,
      "content": "<SPECIAL_97>",
      "single_word": false,
      "lstrip": false,
      "rstrip": false,
      "normalized": false,
      "special": true
    },
    {
      "id": 98,
      "content": "<SPECIAL_98>",
      "single_word": false,
      "lstrip": false,
      "rstrip": false,
      "normalized": false,
      "special": true
    },
    {
      "id": 99,
      "content": "<SPECIAL_99>",
      "single_word": false,
      "lstrip": false,
      "rstrip": false,
      "normalized": false,
      "special": true
    },
    {
      "id": 100,
      "content": "<SPECIAL_100>",
      "single_word": false,
      "lstrip": false,
      "rstrip": false,
      "normalized": false,
      "special": true
    },
    {
      "id": 101,
      "content": "<SPECIAL_101>",
      "single_word": false,
      "lstrip": false,
      "rstrip": false,
      "normalized": false,
      "special": true
    },
    {
      "id": 102,
      "content": "<SPECIAL_102>",
      "single_word": false,
      "lstrip": false,
      "rstrip": false,
      "normalized": false,
      "special": true
    },
    {
      "id": 103,
      "content": "<SPECIAL_103>",
      "single_word": false,
      "lstrip": false,
      "rstrip": false,
      "normalized": false,
      "special": true
    },
    {
      "id": 104,
      "content": "<SPECIAL_104>",
      "single_word": false,
      "lstrip": false,
      "rstrip": false,
      "normalized": false,
      "special": true
    },
    {
      "id": 105,
      "content": "<SPECIAL_105>",
      "single_word": false,
      "lstrip": false,
      "rstrip": false,
      "normalized": false,
      "special": true
    },
    {
      "id": 106,
      "content": "<SPECIAL_106>",
      "single_word": false,
      "lstrip": false,
      "rstrip": false,
      "normalized": false,
      "special": true
    },
    {
      "id": 107,
      "content": "<SPECIAL_107>",
      "single_word": false,
      "lstrip": false,
      "rstrip": false,
      "normalized": false,
      "special": true
    },
    {
      "id": 108,
      "content": "<SPECIAL_108>",
      "single_word": false,
      "lstrip": false,
      "rstrip": false,
      "normalized": false,
      "special": true
    },
    {
      "id": 109,
      "content": "<SPECIAL_109>",
      "single_word": false,
      "lstrip": false,
      "rstrip": false,
      "normalized": false,
      "special": true
    },
    {
      "id": 110,
      "content": "<SPECIAL_110>",
      "single_word": false,
      "lstrip": false,
      "rstrip": false,
      "normalized": false,
      "special": true
    },
    {
      "id": 111,
      "content": "<SPECIAL_111>",
      "single_word": false,
      "lstrip": false,
      "rstrip": false,
      "normalized": false,
      "special": true
    },
    {
      "id": 112,
      "content": "<SPECIAL_112>",
      "single_word": false,
      "lstrip": false,
      "rstrip": false,
      "normalized": false,
      "special": true
    },
    {
      "id": 113,
      "content": "<SPECIAL_113>",
      "single_word": false,
      "lstrip": false,
      "rstrip": false,
      "normalized": false,
      "special": true
    },
    {
      "id": 114,
      "content": "<SPECIAL_114>",
      "single_word": false,
      "lstrip": false,
      "rstrip": false,
      "normalized": false,
      "special": true
    },
    {
      "id": 115,
      "content": "<SPECIAL_115>",
      "single_word": false,
      "lstrip": false,
      "rstrip": false,
      "normalized": false,
      "special": true
    },
    {
      "id": 116,
      "content": "<SPECIAL_116>",
      "single_word": false,
      "lstrip": false,
      "rstrip": false,
      "normalized": false,
      "special": true
    },
    {
      "id": 117,
      "content": "<SPECIAL_117>",
      "single_word": false,
      "lstrip": false,
      "rstrip": false,
      "normalized": false,
      "special": true
    },
    {
      "id": 118,
      "content": "<SPECIAL_118>",
      "single_word": false,
      "lstrip": false,
      "rstrip": false,
      "normalized": false,
      "special": true
    },
    {
      "id": 119,
      "content": "<SPECIAL_119>",
      "single_word": false,
      "lstrip": false,
      "rstrip": false,
      "normalized": false,
      "special": true
    },
    {
      "id": 120,
      "content": "<SPECIAL_120>",
      "single_word": false,
      "lstrip": false,
      "rstrip": false,
      "normalized": false,
      "special": true
    },
    {
      "id": 121,
      "content": "<SPECIAL_121>",
      "single_word": false,
      "lstrip": false,
      "rstrip": false,
      "normalized": false,
      "special": true
    },
    {
      "id": 122,
      "content": "<SPECIAL_122>",
      "single_word": false,
      "lstrip": false,
      "rstrip": false,
      "normalized": false,
      "special": true
    },
    {
      "id": 123,
      "content": "<SPECIAL_123>",
      "single_word": false,
      "lstrip": false,
      "rstrip": false,
      "normalized": false,
      "special": true
    }
  ],
  "normalizer": {
    "type": "NFC"
  },
  "pre_tokenizer": {
    "type": "Sequence",
    "pretokenizers": [
      {
        "type": "Split",
        "pattern": {
          "Regex": "[ \\x{0F0B}\\x{0027}\\x{2019}]?(?<g>[^\\s\\p{N}])\\k<g>{7}|[ \\x{0F0B}\\x{0027}\\x{2019}]?[\\p{Lu}\\p{Lt}\\p{Lm}\\p{Lo}\\p{M}]*[\\p{Ll}\\p{Lm}\\p{Lo}\\p{M}]+|[ \\x{0F0B}\\x{0027}\\x{2019}]?[\\p{Lu}\\p{Lt}\\p{Lm}\\p{Lo}\\p{M}]+[\\p{Ll}\\p{Lm}\\p{Lo}\\p{M}]*|\\p{N}| ?[^\\s\\p{L}\\p{N}]{1,16}|\\s{0,16}[\\r\\n]{1,16}|\\s{1,16}(?!\\S)|\\s{1,16}"
        },
        "behavior": "Isolated",
        "invert": false
      },
      {
        "type": "ByteLevel",
        "add_prefix_space": false,
        "trim_offsets": true,
        "use_regex": false
      }
    ]
  },
  "post_processor": {
    "type": "TemplateProcessing",
    "single": [
      {
        "SpecialToken": {
          "id": "<s>",
          "type_id": 0
        }
      },
      {
        "Sequence": {
          "id": "A",
          "type_id": 0
        }
      },
      {
        "SpecialToken": {
          "id": "</s>",
          "type_id": 0
        }
      }
    ],
    "pair": [
      {
        "SpecialToken": {
          "id": "<s>",
          "type_id": 0
        }
      },
      {
        "Sequence": {
          "id": "A",
          "type_id": 0
        }
      },
      {
        "SpecialToken": {
          "id": "</s>",
          "type_id": 0
        }
      },
      {
        "SpecialToken": {
          "id": "<s>",
          "type_id": 1
        }
      },
      {
        "Sequence": {
          "id": "B",
          "type_id": 1
        }
      },
      {
        "SpecialToken": {
          "id": "</s>",
          "type_id": 1
        }
      }
    ],
    "special_tokens": {
      "</s>": {
        "id": "</s>",
        "ids": [
          2
        ],
        "tokens": [
          "</s>"
        ]
      },
      "<s>": {
        "id": "<s>",
        "ids": [
          1
        ],
        "tokens": [
          "<s>"
        ]
      }
    }
  },
  "decoder": {
    "type": "ByteLevel",
    "add_prefix_space": true,
    "trim_offsets": true,
    "use_regex": true
  },
  "model": {
    "type": "BPE",
    "dropout": null,
    "unk_token": null,
    "continuing_subword_prefix": null,
    "end_of_word_suffix": null,
    "fuse_unk": false,
    "byte_fallback": false,
    "ignore_merges": false,
    "vocab": {
      "<unk>": 0,
      "<s>": 1,
      "</s>": 2,
      "<pad>": 3,
      "<|system_start|>": 4,
      "<|system_end|>": 5,
      "<|developer_start|>": 6,
      "<|developer_end|>": 7,
      "<|user_start|>": 8,
      "<|user_end|>": 9,
      "<|assistant_start|>": 10,
      "<|assistant_end|>": 11,
      "<|inner_prefix|>": 12,
      "<|inner_suffix|>": 13,
      "<|tools_prefix|>": 14,
      "<|tools_suffix|>": 15,
      "<|tool_output_start|>": 16,
      "<|tool_output_end|>": 17,
      "<|image|>": 18,
      "<|audio|>": 19,
      "<reflection>": 20,
      "</reflection>": 21,
      "<think>": 22,
      "</think>": 23,
      "<iban-pii>": 24,
      "<email-pii>": 25,
      "<ip-pii>": 26,
      "<SPECIAL_27>": 27,
      "<SPECIAL_28>": 28,
      "<SPECIAL_29>": 29,
      "<SPECIAL_30>": 30,
      "<SPECIAL_31>": 31,
      "<SPECIAL_32>": 32,
      "<SPECIAL_33>": 33,
      "<SPECIAL_34>": 34,
      "<SPECIAL_35>": 35,
      "<SPECIAL_36>": 36,
      "<SPECIAL_37>": 37,
      "<SPECIAL_38>": 38,
      "<SPECIAL_39>": 39,
      "<SPECIAL_40>": 40,
      "<SPECIAL_41>": 41,
      "<SPECIAL_42>": 42,
      "<SPECIAL_43>": 43,
      "<SPECIAL_44>": 44,
      "<SPECIAL_45>": 45,
      "<SPECIAL_46>": 46,
      "<SPECIAL_47>": 47,
      "<SPECIAL_48>": 48,
      "<SPECIAL_49>": 49,
      "<SPECIAL_50>": 50,
      "<SPECIAL_51>": 51,
      "<SPECIAL_52>": 52,
      "<SPECIAL_53>": 53,
      "<SPECIAL_54>": 54,
      "<SPECIAL_55>": 55,
      "<SPECIAL_56>": 56,
      "<SPECIAL_57>": 57,
      "<SPECIAL_58>": 58,
      "<SPECIAL_59>": 59,
      "<SPECIAL_60>": 60,
      "<SPECIAL_61>": 61,
      "<SPECIAL_62>": 62,
      "<SPECIAL_63>": 63,
      "<SPECIAL_64>": 64,
      "<SPECIAL_65>": 65,
      "<SPECIAL_66>": 66,
      "<SPECIAL_67>": 67,
      "<SPECIAL_68>": 68,
      "<SPECIAL_69>": 69,
      "<SPECIAL_70>": 70,
      "<SPECIAL_71>": 71,
      "<SPECIAL_72>": 72,
      "<SPECIAL_73>": 73,
      "<SPECIAL_74>": 74,
      "<SPECIAL_75>": 75,
      "<SPECIAL_76>": 76,
      "<SPECIAL_77>": 77,
      "<SPECIAL_78>": 78,
      "<SPECIAL_79>": 79,
      "<SPECIAL_80>": 80,
      "<SPECIAL_81>": 81,
      "<SPECIAL_82>": 82,
      "<SPECIAL_83>": 83,
      "<SPECIAL_84>": 84,
      "<SPECIAL_85>": 85,
      "<SPECIAL_86>": 86,
      "<SPECIAL_87>": 87,
      "<SPECIAL_88>": 88,
      "<SPECIAL_89>": 89,
      "<SPECIAL_90>": 90,
      "<SPECIAL_91>": 91,
      "<SPECIAL_92>": 92,
      "<SPECIAL_93>": 93,
      "<SPECIAL_94>": 94,
      "<SPECIAL_95>": 95,
      "<SPECIAL_96>": 96,
      "<SPECIAL_97>": 97,
      "<SPECIAL_98>": 98,
      "<SPECIAL_99>": 99,
      "<SPECIAL_100>": 100,
      "<SPECIAL_101>": 101,
      "<SPECIAL_102>": 102,
      "<SPECIAL_103>": 103,
      "<SPECIAL_104>": 104,
      "<SPECIAL_105>": 105,
      "<SPECIAL_106>": 106,
      "<SPECIAL_107>": 107,
      "<SPECIAL_108>": 108,
      "<SPECIAL_109>": 109,
      "<SPECIAL_110>": 110,
      "<SPECIAL_111>": 111,
      "<SPECIAL_112>": 112,
      "<SPECIAL_113>": 113,
      "<SPECIAL_114>": 114,
      "<SPECIAL_115>": 115,
      "<SPECIAL_116>": 116,
      "<SPECIAL_117>": 117,
      "<SPECIAL_118>": 118,
      "<SPECIAL_119>": 119,
      "<SPECIAL_120>": 120,
      "<SPECIAL_121>": 121,
      "<SPECIAL_122>": 122,
      "<SPECIAL_123>": 123,
      "!": 124,
      "\"": 125,
      "#": 126,
      "$": 127,
      "%": 128,
      "&": 129,
      "'": 130,
      "(": 131,
      ")": 132,
      "*": 133,
      "+": 134,
      ",": 135,
      "-": 136,
      ".": 137,
      "/": 138,
      "0": 139,
      "1": 140,
      "2": 141,
      "3": 142,
      "4": 143,
      "5": 144,
      "6": 145,
      "7": 146,
      "8": 147,
      "9": 148,
      ":": 149,
      ";": 150,
      "<": 151,
      "=": 152,
      ">": 153,
      "?": 154,
      "@": 155,
      "A": 156,
      "B": 157,
      "C": 158,
      "D": 159,
      "E": 160,
      "F": 161,
      "G": 162,
      "H": 163,
      "I": 164,
      "J": 165,
      "K": 166,
      "L": 167,
      "M": 168,
      "N": 169,
      "O": 170,
      "P": 171,
      "Q": 172,
      "R": 173,
      "S": 174,
      "T": 175,
      "U": 176,
      "V": 177,
      "W": 178,
      "X": 179,
      "Y": 180,
      "Z": 181,
      "[": 182,
      "\\": 183,
      "]": 184,
      "^": 185,
      "_": 186,
      "`": 187,
      "a": 188,
      "b": 189,
      "c": 190,
      "d": 191,
      "e": 192,
      "f": 193,
      "g": 194,
      "h": 195,
      "i": 196,
      "j": 197,
      "k": 198,
      "l": 199,
      "m": 200,
      "n": 201,
      "o": 202,
      "p": 203,
      "q": 204,
      "r": 205,
      "s": 206,
      "t": 207,
      "u": 208,
      "v": 209,
      "w": 210,
      "x": 211,
      "y": 212,
      "z": 213,
      "{": 214,
      "|": 215,
      "}": 216,
      "~": 217,
      "¡": 218,
      "¢": 219,
      "£": 220,
      "¤": 221,
      "¥": 222,
      "¦": 223,
      "§": 224,
      "¨": 225,
      "©": 226,
      "ª": 227,
      "«": 228,
      "¬": 229,
      "®": 230,
      "¯": 231,
      "°": 232,
      "±": 233,
      "²": 234,
      "³": 235,
      "´": 236,
      "µ": 237,
      "¶": 238,
      "·": 239,
      "¸": 240,
      "¹": 241,
      "º": 242,
      "»": 243,
      "¼": 244,
      "½": 245,
      "¾": 246,
      "¿": 247,
      "À": 248,
      "Á": 249,
      "Â": 250,
      "Ã": 251,
      "Ä": 252,
      "Å": 253,
      "Æ": 254,
      "Ç": 255,
      "È": 256,
      "É": 257,
      "Ê": 258,
      "Ë": 259,
      "Ì": 260,
      "Í": 261,
      "Î": 262,
      "Ï": 263,
      "Ð": 264,
      "Ñ": 265,
      "Ò": 266,
      "Ó": 267,
      "Ô": 268,
      "Õ": 269,
      "Ö": 270,
      "×": 271,
      "Ø": 272,
      "Ù": 273,
      "Ú": 274,
      "Û": 275,
      "Ü": 276,
      "Ý": 277,
      "Þ": 278,
      "ß": 279,
      "à": 280,
      "á": 281,
      "â": 282,
      "ã": 283,
      "ä": 284,
      "å": 285,
      "æ": 286,
      "ç": 287,
      "è": 288,
      "é": 289,
      "ê": 290,
      "ë": 291,
      "ì": 292,
      "í": 293,
      "î": 294,
      "ï": 295,
      "ð": 296,
      "ñ": 297,
      "ò": 298,
      "ó": 299,
      "ô": 300,
      "õ": 301,
      "ö": 302,
      "÷": 303,
      "ø": 304,
      "ù": 305,
      "ú": 306,
      "û": 307,
      "ü": 308,
      "ý": 309,
      "þ": 310,
      "ÿ": 311,
      "Ā": 312,
      "ā": 313,
      "Ă": 314,
      "ă": 315,
      "Ą": 316,
      "ą": 317,
      "Ć": 318,
      "ć": 319,
      "Ĉ": 320,
      "ĉ": 321,
      "Ċ": 322,
      "ċ": 323,
      "Č": 324,
      "č": 325,
      "Ď": 326,
      "ď": 327,
      "Đ": 328,
      "đ": 329,
      "Ē": 330,
      "ē": 331,
      "Ĕ": 332,
      "ĕ": 333,
      "Ė": 334,
      "ė": 335,
      "Ę": 336,
      "ę": 337,
      "Ě": 338,
      "ě": 339,
      "Ĝ": 340,
      "ĝ": 341,
      "Ğ": 342,
      "ğ": 343,
      "Ġ": 344,
      "ġ": 345,
      "Ģ": 346,
      "ģ": 347,
      "Ĥ": 348,
      "ĥ": 349,
      "Ħ": 350,
      "ħ": 351,
      "Ĩ": 352,
      "ĩ": 353,
      "Ī": 354,
      "ī": 355,
      "Ĭ": 356,
      "ĭ": 357,
      "Į": 358,
      "į": 359,
      "İ": 360,
      "ı": 361,
      "Ĳ": 362,
      "ĳ": 363,
      "Ĵ": 364,
      "ĵ": 365,
      "Ķ": 366,
      "ķ": 367,
      "ĸ": 368,
      "Ĺ": 369,
      "ĺ": 370,
      "Ļ": 371,
      "ļ": 372,
      "Ľ": 373,
      "ľ": 374,
      "Ŀ": 375,
      "ŀ": 376,
      "Ł": 377,
      "ł": 378,
      "Ń": 379,
      "Ġt": 380,
      "Ġa": 381,
      "er": 382,
      "in": 383,
      "en": 384,
      "Ġs": 385,
      "on": 386,
      "es": 387,
      "Ġd": 388,
      "an": 389,
      "he": 390,
      "Ġp": 391,
      "or": 392,
      "at": 393,
      "is": 394,
      "ar": 395,
      "Ġc": 396,
      "Ġm": 397,
      "it": 398,
      "Ġo": 399,
      "re": 400,
      "al": 401,
      "Ġthe": 402,
      "Ġb": 403,
      "Ġf": 404,
      "Ġw": 405,
      "as": 406,
      "Ġl": 407,
      "ed": 408,
      "el": 409,
      "Ġn": 410,
      "et": 411,
      "ou": 412,
      "ing": 413,
      "Ġan": 414,
      "Ġh": 415,
      "Ġin": 416,
      "ic": 417,
      "il": 418,
      "om": 419,
      "Ø§": 420,
      "Ġv": 421,
      "ĠĠ": 422,
      "ent": 423,
      "Ġto": 424,
      "ion": 425,
      "Ġk": 426,
      "Ġof": 427,
      "os": 428,
      "Ã©": 429,
      "Ġe": 430,
      "un": 431,
      "Ġg": 432,
      "us": 433,
      "ro": 434,
      "Ġand": 435,
      "ra": 436,
      "le": 437,
      "ĠÐ": 438,
      "Ġth": 439,
      "ÙĦ": 440,
      "Ġde": 441,
      "ch": 442,
      "id": 443,
      "à¤": 444,
      "am": 445,
      "im": 446,
      "ol": 447,
      "ur": 448,
      "ad": 449,
      "ut": 450,
      "Ã¡": 451,
      "âĢ": 452,
      "ig": 453,
      "áĢ": 454,
      "Ð°": 455,
      "ot": 456,
      "ir": 457,
      "ĠØ": 458,
      "ĠS": 459,
      "em": 460,
      "ct": 461,
      "Ġre": 462,
      "Ġy": 463,
      "ĠA": 464,
      "st": 465,
      "ĠT": 466,
      "ĠÙ": 467,
      "iv": 468,
      "Ð¾": 469,
      "ie": 470,
      "ĠI": 471,
      "ul": 472,
      "Ġis": 473,
      "est": 474,
      "Ġr": 475,
      "ik": 476,
      "ak": 477,
      "ÙĬ": 478,
      "ĠC": 479,
      "Ðµ": 480,
      "Ġfor": 481,
      "ag": 482,
      "qu": 483,
      "Ġbe": 484,
      "Ġst": 485,
      "ĠM": 486,
      "Ð¸": 487,
      "um": 488,
      "Ð½": 489,
      "ÙĨ": 490,
      "áĥ": 491,
      "ter": 492,
      "ce": 493,
      "ÑĤ": 494,
      "Ġj": 495,
      "ly": 496,
      "ation": 497,
      "Ġon": 498,
      "ow": 499,
      "Ø§ÙĦ": 500,
      "ĠP": 501,
      "od": 502,
      "ĠĠĠĠ": 503,
      "ay": 504,
      "Ġ(": 505,
      "ÑĢ": 506,
      "Ã¤": 507,
      "av": 508,
      "Ø±": 509,
      "ers": 510,
      "Ġal": 511,
      "ia": 512,
      "Ġun": 513,
      "ĠB": 514,
      "Ġen": 515,
      "te": 516,
      "and": 517,
      "Ġpro": 518,
      "ĠD": 519,
      "Ġcon": 520,
      "Ġyou": 521,
      "Ġi": 522,
      "ess": 523,
      "Ġse": 524,
      "ÙĪ": 525,
      "ÃŃ": 526,
      "Ġat": 527,
      "ist": 528,
      "ab": 529,
      "Ùħ": 530,
      "à½": 531,
      "Ġthat": 532,
      "ci": 533,
      "Ġwh": 534,
      "Ñģ": 535,
      "Ã¶": 536,
      "Ġà": 537,
      "ith": 538,
      "ĠØ§ÙĦ": 539,
      "Ð»": 540,
      "th": 541,
      "ere": 542,
      "ĠE": 543,
      "ill": 544,
      "Ġas": 545,
      "ver": 546,
      "áŀ": 547,
      "ant": 548,
      "Øª": 549,
      "ĠH": 550,
      "ap": 551,
      "Äģ": 552,
      "Ġhe": 553,
      "ĠL": 554,
      "Ġcom": 555,
      "ud": 556,
      "ri": 557,
      "Ã³": 558,
      "og": 559,
      "eg": 560,
      "op": 561,
      "ĠR": 562,
      "ok": 563,
      "Ġit": 564,
      "ĠF": 565,
      "Å¡": 566,
      "Ġwith": 567,
      "Ġor": 568,
      "end": 569,
      "Ġla": 570,
      "ek": 571,
      "ĠN": 572,
      "Ġqu": 573,
      "Ġsu": 574,
      "Ġz": 575,
      "ta": 576,
      "âĢĻ": 577,
      "if": 578,
      "ĠG": 579,
      "ĠW": 580,
      "Ġne": 581,
      "Ã¥": 582,
      "Ġpr": 583,
      "ac": 584,
      "ell": 585,
      "Ġle": 586,
      "Ø¯": 587,
      "art": 588,
      "ov": 589,
      "ort": 590,
      "Ùĩ": 591,
      "pp": 592,
      "à¥": 593,
      "ĠâĢ": 594,
      "Ð¾Ð": 595,
      "à¸": 596,
      "Ġex": 597,
      "ich": 598,
      "ate": 599,
      "ai": 600,
      "àº": 601,
      "nd": 602,
      "à¦": 603,
      "se": 604,
      "ld": 605,
      "ang": 606,
      "Ġu": 607,
      "Ġare": 608,
      "Ñĥ": 609,
      "ĠÃ": 610,
      "Ø§Ø": 611,
      "Ġch": 612,
      "ĠK": 613,
      "ect": 614,
      "iz": 615,
      "ies": 616,
      "Ø©": 617,
      "ĠJ": 618,
      "Ġà¤": 619,
      "Ġfr": 620,
      "ost": 621,
      "pl": 622,
      "Å¾": 623,
      "ĠO": 624,
      "Ġar": 625,
      "oc": 626,
      "igh": 627,
      "Ġwas": 628,
      "ine": 629,
      "ment": 630,
      "Ġsp": 631,
      "Ð°Ð": 632,
      "all": 633,
      "ãģ": 634,
      "Ġby": 635,
      "our": 636,
      "ÄĹ": 637,
      "ity": 638,
      "Ġ\"": 639,
      "ore": 640,
      "Ġel": 641,
      "Ġpl": 642,
      "ive": 643,
      "ind": 644,
      "ĠThe": 645,
      "Ġdo": 646,
      "ij": 647,
      "Ã©s": 648,
      "ave": 649,
      "ans": 650,
      "ru": 651,
      "ast": 652,
      "Ã¼": 653,
      "ust": 654,
      "ĠV": 655,
      "ne": 656,
      "Å³": 657,
      "ard": 658,
      "Ġnot": 659,
      "Ø¨": 660,
      "ens": 661,
      "ib": 662,
      "Ñĭ": 663,
      "Ġ-": 664,
      "ĠÙħ": 665,
      "ain": 666,
      "Ġus": 667,
      "Ġwe": 668,
      "ve": 669,
      "Ä«": 670,
      "orm": 671,
      "ĠU": 672,
      "Ġte": 673,
      "Ø¹": 674,
      "pt": 675,
      "Ø³": 676,
      "der": 677,
      "ff": 678,
      "per": 679,
      "au": 680,
      "Ġdi": 681,
      "Ġsh": 682,
      "Ġab": 683,
      "ure": 684,
      "Ðº": 685,
      "ge": 686,
      "Ġfrom": 687,
      "ti": 688,
      "Ġet": 689,
      "de": 690,
      "Ð´": 691,
      "Ġcan": 692,
      "Ġpar": 693,
      "ob": 694,
      "Ġper": 695,
      "Ġim": 696,
      "Ġhave": 697,
      "ÙĤ": 698,
      "ÛĮ": 699,
      "'s": 700,
      "to": 701,
      "ach": 702,
      "du": 703,
      "Ġthis": 704,
      "ide": 705,
      "à¼": 706,
      "Ġdes": 707,
      "Ùĥ": 708,
      "Ġme": 709,
      "ĠÙĪ": 710,
      "Ġer": 711,
      "ts": 712,
      "Äĵ": 713,
      "ip": 714,
      "ass": 715,
      "ks": 716,
      "Ġyour": 717,
      "Ġtr": 718,
      "Ġsom": 719,
      "ord": 720,
      "are": 721,
      "à²": 722,
      "Äħ": 723,
      "Ġad": 724,
      "io": 725,
      "ould": 726,
      "ub": 727,
      "à°": 728,
      "à¼ĭ": 729,
      "pr": 730,
      "à´": 731,
      "Åĳ": 732,
      "Ġsa": 733,
      "ke": 734,
      "out": 735,
      "Ġall": 736,
      "Äį": 737,
      "..": 738,
      "Ġque": 739,
      "ear": 740,
      "ite": 741,
      "à®": 742,
      "ien": 743,
      "Ð¼": 744,
      "à¼ĭà½": 745,
      "ions": 746,
      "ĠĠĠĠĠĠĠĠ": 747,
      "ĠIn": 748,
      "gh": 749,
      "Ñı": 750,
      "age": 751,
      "Ġres": 752,
      "Ġso": 753,
      "ight": 754,
      "ll": 755,
      "âĢĿ": 756,
      "ong": 757,
      "Ġna": 758,
      "Ġam": 759,
      "ally": 760,
      "Ùģ": 761,
      "ĠTh": 762,
      "Ġwill": 763,
      "ĠØ¨": 764,
      "az": 765,
      "ĠØ§ÙĦØ": 766,
      "ous": 767,
      "Ġac": 768,
      "Ùī": 769,
      "ber": 770,
      "Ġir": 771,
      "ĠĠĠ": 772,
      "Ġman": 773,
      "Ð²": 774,
      "ah": 775,
      "nt": 776,
      "ier": 777,
      "so": 778,
      "Å«": 779,
      "ice": 780,
      "ĠÑ": 781,
      "aj": 782,
      "Ġhas": 783,
      "ame": 784,
      "à¬": 785,
      "Ġgo": 786,
      "Ġpre": 787,
      "ue": 788,
      "ny": 789,
      "cl": 790,
      "ka": 791,
      "Õ¡": 792,
      "à¤¾": 793,
      "Ġder": 794,
      "form": 795,
      "Ã¸": 796,
      "int": 797,
      "ont": 798,
      "ond": 799,
      "Ġwor": 800,
      "Ġes": 801,
      "ry": 802,
      "Ġver": 803,
      "Ã¡s": 804,
      "pe": 805,
      "ĠÐ¿": 806,
      "ĠÃ©": 807,
      "one": 808,
      "ult": 809,
      "The": 810,
      "Ġmed": 811,
      "ung": 812,
      "gy": 813,
      "Ġcl": 814,
      "Ġno": 815,
      "ated": 816,
      "Ġest": 817,
      "Ġem": 818,
      "Ã¶r": 819,
      "ime": 820,
      "ther": 821,
      "Ġdis": 822,
      "fer": 823,
      "àª": 824,
      "ement": 825,
      "Ġcomp": 826,
      "ose": 827,
      "ough": 828,
      "ten": 829,
      "Ø§ÙĨ": 830,
      "ire": 831,
      "oj": 832,
      "ning": 833,
      "ile": 834,
      "Ġaf": 835,
      "act": 836,
      "ng": 837,
      "Ġra": 838,
      "na": 839,
      "Ġav": 840,
      "Ġcont": 841,
      "ary": 842,
      "ĠÑģ": 843,
      "me": 844,
      "ound": 845,
      "ĠSt": 846,
      "Ġbut": 847,
      "ake": 848,
      "Ġog": 849,
      "áŁ": 850,
      "her": 851,
      "Ġdet": 852,
      "vel": 853,
      "--": 854,
      ").": 855,
      "âĢĻs": 856,
      "ep": 857,
      "à¨": 858,
      "Ġdu": 859,
      "Ġag": 860,
      "ase": 861,
      "à§": 862,
      "Ġser": 863,
      "Ã¦": 864,
      "ial": 865,
      "ck": 866,
      "ance": 867,
      "Ġtra": 868,
      "ors": 869,
      "able": 870,
      "Ñĸ": 871,
      "Ġro": 872,
      "ign": 873,
      "Ġapp": 874,
      "ys": 875,
      "li": 876,
      "ely": 877,
      "Ġpart": 878,
      "Ġhis": 879,
      "ations": 880,
      "Ġsk": 881,
      "Ġaz": 882,
      "Ġwhich": 883,
      "aus": 884,
      "com": 885,
      "mer": 886,
      "ÑĮ": 887,
      "Ġinter": 888,
      "Ġout": 889,
      "Ã§": 890,
      "ĠÙĦ": 891,
      "Ð³": 892,
      "á»": 893,
      "ven": 894,
      "Ġgr": 895,
      "Ġsz": 896,
      "ĠØ£": 897,
      "ink": 898,
      "ail": 899,
      "port": 900,
      "ĠâĢľ": 901,
      "ĠÄ": 902,
      "Õ¡Õ": 903,
      "ĠÙģ": 904,
      "áĪ": 905,
      "ĠØª": 906,
      "iss": 907,
      "ical": 908,
      "cess": 909,
      "we": 910,
      "Ġatt": 911,
      "ĊĊ": 912,
      "ction": 913,
      "ĠÐ²": 914,
      "Ð°Ð½": 915,
      "ĠY": 916,
      "ater": 917,
      "Ġ×": 918,
      "Ġpe": 919,
      "ace": 920,
      "oss": 921,
      "ĠCh": 922,
      "ja": 923,
      "uk": 924,
      "ĠÕ": 925,
      "ØŃ": 926,
      "ack": 927,
      "Ġtheir": 928,
      "ni": 929,
      "Ġthey": 930,
      "Ġden": 931,
      "ÐµÐ½": 932,
      "Ġmore": 933,
      "ents": 934,
      "Ġone": 935,
      "Ġvan": 936,
      "ĠÎ": 937,
      "tt": 938,
      "ook": 939,
      "ett": 940,
      "ew": 941,
      "ug": 942,
      "ÄĽ": 943,
      "Ã£": 944,
      "ram": 945,
      "ĠÐ½": 946,
      "Ã¤r": 947,
      "Ġdie": 948,
      "ons": 949,
      "ence": 950,
      "Ġup": 951,
      "rit": 952,
      "je": 953,
      "Ġpo": 954,
      "iet": 955,
      "ese": 956,
      "ÑģÑĤ": 957,
      "Ã¡l": 958,
      "ian": 959,
      "ï¼": 960,
      "à·": 961,
      "ade": 962,
      "à¤¾à¤": 963,
      "ft": 964,
      "Ġbl": 965,
      "Ùİ": 966,
      "und": 967,
      "Ġdel": 968,
      "Ãº": 969,
      "be": 970,
      "oll": 971,
      "ces": 972,
      "ØĮ": 973,
      "à¥į": 974,
      "ĠØ¹": 975,
      "),": 976,
      "ark": 977,
      "lic": 978,
      "ĠâĢĵ": 979,
      "Ġvar": 980,
      "ina": 981,
      "ition": 982,
      "Ġda": 983,
      "ild": 984,
      "ata": 985,
      "áĢº": 986,
      "ãĤ": 987,
      "Ø¬": 988,
      "Ãª": 989,
      "ale": 990,
      "Ñħ": 991,
      "Ġ=": 992,
      "Ġbet": 993,
      "Ġsy": 994,
      "Ã½": 995,
      "ike": 996,
      "Ã£o": 997,
      "Ġmy": 998,
      "à¥įà¤": 999,
      "Ġmet": 1000,
      "erm": 1001,
      "che": 1002,
      "eb": 1003,
      "Ñĩ": 1004,
      "kt": 1005,
      "ais": 1006,
      "Ġop": 1007,
      "ãĢ": 1008,
      "Ġover": 1009,
      "Ġabout": 1010,
      "Ã©r": 1011,
      "áĥĲ": 1012,
      "Ø§Ø±": 1013,
      "ish": 1014,
      "Ġob": 1015,
      "ĠÐº": 1016,
      "Ð¹": 1017,
      "Ġì": 1018,
      "ĠÃ©s": 1019,
      "à¶": 1020,
      "ings": 1021,
      "ec": 1022,
      "ĠÐ±": 1023,
      "Ã¨": 1024,
      "Ġalso": 1025,
      "Ġwho": 1026,
      "la": 1027,
      "Ġà¦": 1028,
      "ĠÑĤ": 1029,
      "à¯": 1030,
      "amp": 1031,
      "sk": 1032,
      "eng": 1033,
      "ick": 1034,
      "ä¸": 1035,
      "Ð°ÑĢ": 1036,
      "Ġany": 1037,
      "àµ": 1038,
      "Ä±": 1039,
      "Ġles": 1040,
      "ĠÃł": 1041,
      "ze": 1042,
      "Ø§Øª": 1043,
      "iel": 1044,
      "Ġau": 1045,
      "Äĥ": 1046,
      "Ġif": 1047,
      "ise": 1048,
      "ual": 1049,
      "Ġind": 1050,
      "res": 1051,
      "reat": 1052,
      "ÄĻ": 1053,
      "ho": 1054,
      "ĠpÃ¥": 1055,
      "up": 1056,
      "ĠÚ": 1057,
      "Ġund": 1058,
      "ogy": 1059,
      "ma": 1060,
      "Ġher": 1061,
      "ays": 1062,
      "Ġsi": 1063,
      "Ġcons": 1064,
      "ory": 1065,
      "Ð¿": 1066,
      "Ġother": 1067,
      "Ã©g": 1068,
      "Ġje": 1069,
      "ert": 1070,
      "Ġhad": 1071,
      "ble": 1072,
      "Ġtime": 1073,
      "Ġwere": 1074,
      "ene": 1075,
      "ph": 1076,
      "own": 1077,
      "ÑĪ": 1078,
      "ins": 1079,
      "Ã¡n": 1080,
      "old": 1081,
      "Ø´": 1082,
      "Ġil": 1083,
      "Ġreg": 1084,
      "Ġá": 1085,
      "ree": 1086,
      "Ġmin": 1087,
      "Ð·": 1088,
      "ĠÐ¸": 1089,
      "Ġpers": 1090,
      "Ġpat": 1091,
      "Ġent": 1092,
      "les": 1093,
      "itt": 1094,
      "ĠÐ´": 1095,
      "Ġmu": 1096,
      "cial": 1097,
      "ĠIt": 1098,
      "wo": 1099,
      "Ġval": 1100,
      "Ġum": 1101,
      "Ġke": 1102,
      "Ġyear": 1103,
      "lo": 1104,
      "Ġthere": 1105,
      "Î±": 1106,
      "Ġits": 1107,
      "Ġom": 1108,
      "Ġfe": 1109,
      "Ġwould": 1110,
      "no": 1111,
      "Ġprodu": 1112,
      "red": 1113,
      "Ġáĥ": 1114,
      "Ġtil": 1115,
      "Ġwork": 1116,
      "à¹": 1117,
      "Ġmay": 1118,
      "ÐµÑĢ": 1119,
      "Ġstr": 1120,
      "Ġwhen": 1121,
      "ĠØ§ÙĦÙħ": 1122,
      "que": 1123,
      "||": 1124,
      "Ð°Ð»": 1125,
      "Ûķ": 1126,
      "ÅĻ": 1127,
      "Ġrec": 1128,
      "ana": 1129,
      "Ġpor": 1130,
      "ÙĬØ©": 1131,
      "ĠÐ¾": 1132,
      "fic": 1133,
      "Ð¾Ð²": 1134,
      "sz": 1135,
      "ount": 1136,
      "ÅĤ": 1137,
      "Ã³n": 1138,
      "Ġbeen": 1139,
      "ga": 1140,
      "ĠÙĬ": 1141,
      "oy": 1142,
      "gan": 1143,
      "ient": 1144,
      "Ã¡r": 1145,
      "ied": 1146,
      "Ġvis": 1147,
      "ada": 1148,
      "iÅ³": 1149,
      "ï¼Į": 1150,
      "Ġkn": 1151,
      "ÏĦ": 1152,
      "Ã¡t": 1153,
      "ner": 1154,
      "Ġsome": 1155,
      "áĥĲáĥ": 1156,
      "irst": 1157,
      "à¥ĩ": 1158,
      "Ġmod": 1159,
      "Ġsc": 1160,
      "ica": 1161,
      "Ð°ÑĤ": 1162,
      "ĠZ": 1163,
      "à±": 1164,
      "lig": 1165,
      "ÖĢ": 1166,
      "Ġap": 1167,
      "à³": 1168,
      "Ġma": 1169,
      "any": 1170,
      "Ġdif": 1171,
      "Ġnew": 1172,
      "Ġbr": 1173,
      "áĢºáĢ": 1174,
      "Ġgen": 1175,
      "Ġfin": 1176,
      "Ġspe": 1177,
      "Ġve": 1178,
      "áĥĺ": 1179,
      "Ġunder": 1180,
      "ĠÅ¡": 1181,
      "Ġbu": 1182,
      "Ġact": 1183,
      "oh": 1184,
      "Ġsur": 1185,
      "Ġoch": 1186,
      "ome": 1187,
      "Ġcomm": 1188,
      "Ġthan": 1189,
      "ĠÙģÙĬ": 1190,
      "Ġthem": 1191,
      "âĢľ": 1192,
      "xt": 1193,
      "wn": 1194,
      "Ġour": 1195,
      "Ġco": 1196,
      "ĠÐ¼": 1197,
      "Ġche": 1198,
      "ym": 1199,
      "vent": 1200,
      "Ġut": 1201,
      "Ġpas": 1202,
      "à»": 1203,
      "ben": 1204,
      "Ġmeg": 1205,
      "zt": 1206,
      "In": 1207,
      "Ñį": 1208,
      "tain": 1209,
      "Ġwhat": 1210,
      "isk": 1211,
      "ĠáĢ": 1212,
      "Ġhel": 1213,
      "ĠUn": 1214,
      "ÉĻ": 1215,
      "Ġkan": 1216,
      "Ġinto": 1217,
      "ÃŃt": 1218,
      "Î¿": 1219,
      "ident": 1220,
      "air": 1221,
      "hat": 1222,
      "Ġpol": 1223,
      "ject": 1224,
      "ank": 1225,
      "Ø·": 1226,
      "ĠÙħÙĨ": 1227,
      "Ã«": 1228,
      "Ġprov": 1229,
      "Ġmen": 1230,
      "ates": 1231,
      "yd": 1232,
      "Øµ": 1233,
      "oz": 1234,
      "Ġhet": 1235,
      "its": 1236,
      "Î¹": 1237,
      "pro": 1238,
      "Ð¾ÑĢ": 1239,
      "ev": 1240,
      "ating": 1241,
      "Ġph": 1242,
      "Ġaut": 1243,
      "ament": 1244,
      "Ð±": 1245,
      "'t": 1246,
      "Ġfl": 1247,
      "clud": 1248,
      "ĠØ¯": 1249,
      "iem": 1250,
      "Ø²": 1251,
      "ced": 1252,
      "à¤¿": 1253,
      "ren": 1254,
      "Ø§Ùħ": 1255,
      "ban": 1256,
      "Ġ'": 1257,
      "Ġinform": 1258,
      "ãĥ": 1259,
      "ÓĻ": 1260,
      "ern": 1261,
      "Ġhow": 1262,
      "Ġlike": 1263,
      "×Ļ": 1264,
      "ÄĹs": 1265,
      "als": 1266,
      "Ġeen": 1267,
      "Ġneed": 1268,
      "ets": 1269,
      "Ġ:": 1270,
      "ÙĬÙĨ": 1271,
      "att": 1272,
      "Ð¾Ð»": 1273,
      "Ġint": 1274,
      "Ø®": 1275,
      "ause": 1276,
      "ste": 1277,
      "ĠÂ": 1278,
      "erv": 1279,
      "Õ¸": 1280,
      "ove": 1281,
      "Ġform": 1282,
      "Ġhar": 1283,
      "ÙĦÙī": 1284,
      "Ġkom": 1285,
      "Ġinv": 1286,
      "den": 1287,
      "Ġperson": 1288,
      "Ġ$": 1289,
      "ople": 1290,
      "ba": 1291,
      "ott": 1292,
      "ĠØ³": 1293,
      "Ġuse": 1294,
      "ĠfÃ¶r": 1295,
      "Ãł": 1296,
      "Ġfirst": 1297,
      "ĠHe": 1298,
      "ict": 1299,
      "Ġpara": 1300,
      "Ã©t": 1301,
      "Ġsl": 1302,
      "els": 1303,
      "Ġsaid": 1304,
      "Ġstud": 1305,
      "Ġcar": 1306,
      "stem": 1307,
      "Ġein": 1308,
      "ado": 1309,
      "Ġsm": 1310,
      "à¾": 1311,
      "ann": 1312,
      "Ġadd": 1313,
      "elf": 1314,
      "Ġja": 1315,
      "ull": 1316,
      "Ġcol": 1317,
      "áī": 1318,
      "Ġdem": 1319,
      "ui": 1320,
      "Th": 1321,
      "ĠAl": 1322,
      "ular": 1323,
      "Ġvo": 1324,
      "ple": 1325,
      "Ġtrans": 1326,
      "Ġmost": 1327,
      "Ã©n": 1328,
      "ha": 1329,
      "Ġsub": 1330,
      "ress": 1331,
      "urn": 1332,
      "ĠThis": 1333,
      "Ġà¨": 1334,
      "Ã¼l": 1335,
      "ange": 1336,
      "áĥĶ": 1337,
      "Ġeff": 1338,
      "...": 1339,
      "Ġjust": 1340,
      "ood": 1341,
      "oth": 1342,
      "yn": 1343,
      "Ġrel": 1344,
      "Ġpres": 1345,
      "Ġonly": 1346,
      "val": 1347,
      "ps": 1348,
      "ele": 1349,
      "iek": 1350,
      "gen": 1351,
      "rib": 1352,
      "ĠÙĥ": 1353,
      "pect": 1354,
      "Ò¯": 1355,
      "ivers": 1356,
      "ĠÄ¯": 1357,
      "à«": 1358,
      "itu": 1359,
      "ali": 1360,
      "Ġty": 1361,
      "ÙĪÙĨ": 1362,
      "za": 1363,
      "Ġka": 1364,
      "arg": 1365,
      "Ġrem": 1366,
      "áº": 1367,
      "ara": 1368,
      "ĠÅ¾": 1369,
      "Ġtwo": 1370,
      "ĠAr": 1371,
      "olog": 1372,
      "Ġegy": 1373,
      "land": 1374,
      "ock": 1375,
      "ĠDe": 1376,
      "ath": 1377,
      "co": 1378,
      "Ġshe": 1379,
      "rough": 1380,
      "Ġpeople": 1381,
      "ĠÅ": 1382,
      "ĠÙĩ": 1383,
      "pos": 1384,
      "cre": 1385,
      "urs": 1386,
      "uss": 1387,
      "ful": 1388,
      "ex": 1389,
      "áĢ¬": 1390,
      "ational": 1391,
      ",\"": 1392,
      "Ġë": 1393,
      "ìĿ": 1394,
      "Õ¥": 1395,
      "Ġass": 1396,
      "ĠĠĠĠĠĠĠ": 1397,
      "Ġprog": 1398,
      "Ġend": 1399,
      "Îµ": 1400,
      "ific": 1401,
      "ende": 1402,
      "ĠPro": 1403,
      "cy": 1404,
      "ĠÐ°": 1405,
      "Î½": 1406,
      "à¤°": 1407,
      "Ġinclud": 1408,
      "con": 1409,
      "Õ¶": 1410,
      "iew": 1411,
      "àŃ": 1412,
      "ible": 1413,
      "ĠÐ·": 1414,
      "Ġserv": 1415,
      "Ĵáŀ": 1416,
      "áĭ": 1417,
      "Ġthese": 1418,
      "rad": 1419,
      "app": 1420,
      "à¦¾": 1421,
      "Ġget": 1422,
      "Ġta": 1423,
      "ĠCom": 1424,
      "ities": 1425,
      "tern": 1426,
      "ÑĨ": 1427,
      "very": 1428,
      "ari": 1429,
      "à©": 1430,
      "Ã¥r": 1431,
      "Ġfil": 1432,
      "¸áĢ": 1433,
      "row": 1434,
      "hed": 1435,
      "va": 1436,
      "ĠÐ¿ÑĢ": 1437,
      "men": 1438,
      "atur": 1439,
      "Ġsim": 1440,
      "Ġpa": 1441,
      "ĠÙĨ": 1442,
      "Ã¤n": 1443,
      "uro": 1444,
      "Ġ.": 1445,
      "Ø¶": 1446,
      "ty": 1447,
      "Ġacc": 1448,
      "Ġed": 1449,
      "áĥĶáĥ": 1450,
      "áĬ": 1451,
      "Ġinst": 1452,
      "ider": 1453,
      "tr": 1454,
      "Ġsuch": 1455,
      "ious": 1456,
      "ode": 1457,
      "Ġhigh": 1458,
      "ife": 1459,
      "Ð½Ð¸": 1460,
      "ÙĪÙĦ": 1461,
      "Ġmake": 1462,
      "Ġshould": 1463,
      "//": 1464,
      "nÃŃ": 1465,
      "Ġiz": 1466,
      "áŁĴáŀ": 1467,
      "à¯į": 1468,
      "Ġak": 1469,
      "Ø§Ø³": 1470,
      "Ġhogy": 1471,
      "Ġdur": 1472,
      "ÐµÑĤ": 1473,
      "Ġbel": 1474,
      "aw": 1475,
      "Ġnum": 1476,
      "ete": 1477,
      "Ġmat": 1478,
      "Ġinf": 1479,
      "ĠAs": 1480,
      "Ġter": 1481,
      "Ġcor": 1482,
      "Ġbec": 1483,
      "ĠAn": 1484,
      "ily": 1485,
      "fore": 1486,
      "Ġknow": 1487,
      "par": 1488,
      "uc": 1489,
      "Ø£": 1490,
      "ato": 1491,
      "Ġtak": 1492,
      "Ġthrough": 1493,
      "Ø°": 1494,
      "Ġmon": 1495,
      "Ġafter": 1496,
      "Ġàª": 1497,
      "àµį": 1498,
      "Ð¾Ð¼": 1499,
      "Ġ[": 1500,
      "Ó©": 1501,
      "ics": 1502,
      "ĠØ¥": 1503,
      "Ġos": 1504,
      "ract": 1505,
      "áĢ¯": 1506,
      "Ġoff": 1507,
      "ini": 1508,
      "ember": 1509,
      "Ñİ": 1510,
      "Ġthen": 1511,
      "Ġpos": 1512,
      "Ġvi": 1513,
      "Ġsch": 1514,
      "ãĢĤ": 1515,
      "led": 1516,
      "Ġleg": 1517,
      "×ķ": 1518,
      "Ġsupp": 1519,
      "ism": 1520,
      ".\"": 1521,
      "velop": 1522,
      "çļ": 1523,
      "eth": 1524,
      "Ġdef": 1525,
      "Ġsec": 1526,
      "ars": 1527,
      "ran": 1528,
      "man": 1529,
      "ork": 1530,
      "ute": 1531,
      "áŀ¶": 1532,
      "imo": 1533,
      "Ġik": 1534,
      "Ð¸ÑĤ": 1535,
      "à¤¿à¤": 1536,
      "Ġlos": 1537,
      "ĠkÃ¶": 1538,
      "era": 1539,
      "ÙĪØ±": 1540,
      "Ġpub": 1541,
      "Ġbest": 1542,
      "ility": 1543,
      "Ġwell": 1544,
      "Õ«": 1545,
      "Ġdon": 1546,
      "ower": 1547,
      "Ġhelp": 1548,
      "ional": 1549,
      "áģ": 1550,
      "äº": 1551,
      "Ġdec": 1552,
      "çļĦ": 1553,
      "Ġtem": 1554,
      "Ġins": 1555,
      "Ġsol": 1556,
      "Ġny": 1557,
      "gg": 1558,
      "Ġart": 1559,
      "Ġcould": 1560,
      "ased": 1561,
      "kl": 1562,
      "Ġsin": 1563,
      "ÐµÐ»": 1564,
      "oun": 1565,
      "ÙĩØ§": 1566,
      "tu": 1567,
      "ats": 1568,
      "Ð¶": 1569,
      "ama": 1570,
      "ĠÙĤ": 1571,
      "Ġwhere": 1572,
      "Ġdid": 1573,
      "ool": 1574,
      "cept": 1575,
      "Ġha": 1576,
      "----": 1577,
      "ative": 1578,
      "Ð¾Ð´": 1579,
      "áĢŃ": 1580,
      "ash": 1581,
      "ĠÚ©": 1582,
      "ĠØ¬": 1583,
      "emb": 1584,
      "Ġgu": 1585,
      "ciÃ³n": 1586,
      "áĢ¬áĢ": 1587,
      "Ġdire": 1588,
      "ator": 1589,
      "Ġfun": 1590,
      "Ġuna": 1591,
      "Ã§Ã£o": 1592,
      "Ġnu": 1593,
      "iai": 1594,
      "áĥĺáĥ": 1595,
      "Ġdr": 1596,
      "Ġvol": 1597,
      "ĠLe": 1598,
      "Ä¯": 1599,
      "het": 1600,
      "hen": 1601,
      "ika": 1602,
      "ger": 1603,
      "ige": 1604,
      "Ð¾Ð³": 1605,
      "Ġmany": 1606,
      "ÙĲ": 1607,
      "Ġnem": 1608,
      "Ġmak": 1609,
      "Ġplay": 1610,
      "ÅĨ": 1611,
      "cc": 1612,
      "Ð¾Ð½": 1613,
      "ĠRe": 1614,
      "Ġkur": 1615,
      "ĠWe": 1616,
      "amb": 1617,
      "ita": 1618,
      "Ġbo": 1619,
      "agy": 1620,
      "Ġyears": 1621,
      "Ġdiffer": 1622,
      "ĠÑĢ": 1623,
      "ala": 1624,
      "Ġwant": 1625,
      "ĠiÅ¡": 1626,
      "ret": 1627,
      "Ġvery": 1628,
      "Ġfam": 1629,
      "Ġcent": 1630,
      "×Ļ×": 1631,
      "Äģs": 1632,
      "ices": 1633,
      "Ġback": 1634,
      "Ġrequ": 1635,
      "gr": 1636,
      "Ø«": 1637,
      "ĠØŃ": 1638,
      "vis": 1639,
      "Ġell": 1640,
      "Ïĥ": 1641,
      "Ġmo": 1642,
      "alt": 1643,
      "Ġsv": 1644,
      "Ġlong": 1645,
      "arb": 1646,
      "Ġlo": 1647,
      "min": 1648,
      "iver": 1649,
      "Ã¸r": 1650,
      "enn": 1651,
      "ÙĬØ±": 1652,
      "à¥Ģ": 1653,
      "Ġsystem": 1654,
      "Ġsign": 1655,
      "Ġà°": 1656,
      "æľ": 1657,
      "arn": 1658,
      "Ġhim": 1659,
      "ward": 1660,
      "ios": 1661,
      "ura": 1662,
      "elle": 1663,
      "da": 1664,
      "eral": 1665,
      "ĠSe": 1666,
      "ÅŁ": 1667,
      "Ïģ": 1668,
      "áŀ¶áŀ": 1669,
      "Ġ{": 1670,
      "Ġmot": 1671,
      "Ġmus": 1672,
      "Ġway": 1673,
      "Ã¡g": 1674,
      "Ð¸Ð½": 1675,
      "mi": 1676,
      "cent": 1677,
      "Ġimport": 1678,
      "Ġà¬": 1679,
      "vo": 1680,
      "ĉĉ": 1681,
      "Ġprogram": 1682,
      "áĢ¹": 1683,
      "ited": 1684,
      "ane": 1685,
      "ues": 1686,
      "po": 1687,
      "Å¯": 1688,
      "Ġgl": 1689,
      "Ãµ": 1690,
      "zi": 1691,
      "Ġexper": 1692,
      "Ġused": 1693,
      "Ġge": 1694,
      "ku": 1695,
      "af": 1696,
      "áĢ±": 1697,
      "Ġgy": 1698,
      "ix": 1699,
      "ÖĤ": 1700,
      "Ġgra": 1701,
      "Ġlook": 1702,
      "wa": 1703,
      "Ġloc": 1704,
      "ric": 1705,
      "Ġà²": 1706,
      "ĠYou": 1707,
      "icht": 1708,
      "hr": 1709,
      "ĠQ": 1710,
      "let": 1711,
      "Ġorgan": 1712,
      "Ġmar": 1713,
      "ird": 1714,
      "Ġcre": 1715,
      "Ġcr": 1716,
      "Ġgood": 1717,
      "bb": 1718,
      "Ø§Ø¨": 1719,
      "Ú©": 1720,
      "Ð°Ð¼": 1721,
      "Ø§Ø¯": 1722,
      "Ġvon": 1723,
      "ution": 1724,
      "à½²": 1725,
      "cer": 1726,
      "Ġbecause": 1727,
      "Ġtest": 1728,
      "cij": 1729,
      "ĠâĢŀ": 1730,
      "ollow": 1731,
      "ms": 1732,
      "get": 1733,
      "ams": 1734,
      "Ġeven": 1735,
      "yb": 1736,
      "Ġproble": 1737,
      "Ġreal": 1738,
      "iu": 1739,
      "Ġprof": 1740,
      "Ð°Ð²": 1741,
      "ii": 1742,
      "of": 1743,
      "Ġfa": 1744,
      "ĠAnd": 1745,
      "ron": 1746,
      "Ġext": 1747,
      "ĠÑĥ": 1748,
      "Ã©k": 1749,
      "Ġword": 1750,
      "ĠÃ¤r": 1751,
      "Ġdist": 1752,
      "ĠdÃ©": 1753,
      "hip": 1754,
      "Ġfind": 1755,
      "àµįà´": 1756,
      "à½¦": 1757,
      "Ġpour": 1758,
      "à¤¨": 1759,
      "Ġx": 1760,
      "Ġevery": 1761,
      "Å¼": 1762,
      "ments": 1763,
      "lu": 1764,
      "Ġson": 1765,
      "ines": 1766,
      "Ùı": 1767,
      "elt": 1768,
      "ando": 1769,
      "ino": 1770,
      "ede": 1771,
      "Äĩ": 1772,
      "ever": 1773,
      "Ġmuch": 1774,
      "Ã¼r": 1775,
      "Ã¡k": 1776,
      "\",": 1777,
      "Ġstart": 1778,
      "Ġhand": 1779,
      "áĤ": 1780,
      "Ġcompl": 1781,
      "ati": 1782,
      "ida": 1783,
      "Ġbus": 1784,
      "Ġsee": 1785,
      "Ġcap": 1786,
      "une": 1787,
      "ante": 1788,
      "Ð½Ð¾": 1789,
      "ler": 1790,
      "alth": 1791,
      "Ġdevelop": 1792,
      "yr": 1793,
      "por": 1794,
      "Ġinformation": 1795,
      "zen": 1796,
      "ages": 1797,
      "day": 1798,
      ");": 1799,
      "cia": 1800,
      "ument": 1801,
      "yt": 1802,
      "ĠØ§ÙĦØ£": 1803,
      "Ġprocess": 1804,
      "ĠÃ¶": 1805,
      "ĠIf": 1806,
      "ä»": 1807,
      "chn": 1808,
      "áĢ¯áĢ": 1809,
      "Ġdans": 1810,
      "ĠÐ½Ð°": 1811,
      "ters": 1812,
      "ize": 1813,
      "Ġsam": 1814,
      "ween": 1815,
      "Ġposs": 1816,
      "Ġune": 1817,
      "alk": 1818,
      "ione": 1819,
      "ros": 1820,
      "ÏĢ": 1821,
      "pa": 1822,
      "Ġtill": 1823,
      "ants": 1824,
      "ures": 1825,
      "Ð°Ðº": 1826,
      "aut": 1827,
      "åı": 1828,
      "Øº": 1829,
      "Ġquest": 1830,
      "Ġcour": 1831,
      "Ġku": 1832,
      "orn": 1833,
      "Ġmark": 1834,
      "ÐµÐ¼": 1835,
      "Ġdoes": 1836,
      "Ġresp": 1837,
      "Ġod": 1838,
      "ives": 1839,
      "Ġpu": 1840,
      "ĠFor": 1841,
      "Ġmit": 1842,
      "Ġvers": 1843,
      "Ġmil": 1844,
      "čĊ": 1845,
      "ĠØ§ÙĦØª": 1846,
      "ĠBe": 1847,
      "à¦¾à¦": 1848,
      "Ġpot": 1849,
      "ved": 1850,
      "Ġà®": 1851,
      "ĠMar": 1852,
      "Ġev": 1853,
      "Ġtur": 1854,
      "Ġpass": 1855,
      "chen": 1856,
      "Ġnow": 1857,
      "di": 1858,
      "ĠNew": 1859,
      "ĠÐ³": 1860,
      "Õ¸ÖĤ": 1861,
      "Ġbetween": 1862,
      "ER": 1863,
      "Ġpartic": 1864,
      "Ġ|": 1865,
      "Ġterm": 1866,
      "Ġsav": 1867,
      "ral": 1868,
      "Å±": 1869,
      "inn": 1870,
      "Ä¼": 1871,
      "press": 1872,
      "Ùĭ": 1873,
      "Ġà¤ķ": 1874,
      "Ġconf": 1875,
      "ital": 1876,
      "Ã¢": 1877,
      "Ġkl": 1878,
      "×ķ×": 1879,
      "Ġdat": 1880,
      "ko": 1881,
      "Ð°Ð¹": 1882,
      "Ġva": 1883,
      "Ġcur": 1884,
      "Ġret": 1885,
      "Ġ&": 1886,
      "Ġfollow": 1887,
      "Ã®": 1888,
      "à½¼": 1889,
      "ĠØ§": 1890,
      "ella": 1891,
      "ason": 1892,
      "ss": 1893,
      "Ġagain": 1894,
      "iness": 1895,
      "rol": 1896,
      "Ġkon": 1897,
      "Ġbefore": 1898,
      "Ġou": 1899,
      "Ġmade": 1900,
      "ente": 1901,
      "âĢĻt": 1902,
      "ĠØ±": 1903,
      "Ð½Ñĭ": 1904,
      "Ġbeing": 1905,
      "ows": 1906,
      "Ùĳ": 1907,
      "ih": 1908,
      "Ġcall": 1909,
      "Ð¾ÑĤ": 1910,
      "Ġconst": 1911,
      "Ä«b": 1912,
      "Ġlas": 1913,
      "Äģr": 1914,
      "ĠÑħ": 1915,
      "ĠSch": 1916,
      "Ã©m": 1917,
      "line": 1918,
      "ĠØ´": 1919,
      "à¤ķ": 1920,
      "Ġà¶": 1921,
      "Ġbeh": 1922,
      "Ġzu": 1923,
      "Ã³l": 1924,
      "Ġpop": 1925,
      "Ġset": 1926,
      "ody": 1927,
      "Ð¸Ð»": 1928,
      "à¥ĭ": 1929,
      "ves": 1930,
      "zy": 1931,
      "imes": 1932,
      "Ġdown": 1933,
      "ki": 1934,
      "rom": 1935,
      "ux": 1936,
      "other": 1937,
      "ker": 1938,
      "Ġ<": 1939,
      "Ġnon": 1940,
      "ĠEn": 1941,
      "íķ": 1942,
      "rat": 1943,
      "**": 1944,
      "ili": 1945,
      "ling": 1946,
      "Ġown": 1947,
      "Ġant": 1948,
      "ature": 1949,
      "Ġlife": 1950,
      "ruct": 1951,
      "sp": 1952,
      "ken": 1953,
      "Ġtake": 1954,
      "way": 1955,
      "Ġworld": 1956,
      ".âĢĿ": 1957,
      "àº²": 1958,
      "vers": 1959,
      "oup": 1960,
      "Ġthose": 1961,
      "Ġcare": 1962,
      "ras": 1963,
      "Ġ/": 1964,
      "Ġmag": 1965,
      "fter": 1966,
      "Ġà´": 1967,
      "arm": 1968,
      "iment": 1969,
      "iti": 1970,
      "Ġfra": 1971,
      "Ġeach": 1972,
      "Ġthink": 1973,
      "Ġmind": 1974,
      "à¤¤": 1975,
      "ivid": 1976,
      "Ã©l": 1977,
      "ande": 1978,
      "ior": 1979,
      "Ġread": 1980,
      "à¯įà®": 1981,
      "Ġng": 1982,
      "ista": 1983,
      "pres": 1984,
      "Ø±ÙĬ": 1985,
      "Ġdifferent": 1986,
      "ather": 1987,
      "Ġyra": 1988,
      "à§ĩ": 1989,
      "erg": 1990,
      "ette": 1991,
      "ima": 1992,
      "Ġrest": 1993,
      "ico": 1994,
      "Å¡an": 1995,
      "Ġsame": 1996,
      "Ġist": 1997,
      "lich": 1998,
      "à¦¿": 1999,
      "à§į": 2000,
      "bo": 2001,
      "å¤": 2002,
      "ekt": 2003,
      "Ġsex": 2004,
      "Ð¸Ð¹": 2005,
      "Ã©e": 2006,
      "Ġdas": 2007,
      "omen": 2008,
      "ĠAd": 2009,
      "ijn": 2010,
      "Õ¡Õ¶": 2011,
      "ĠĠĠĠĠ": 2012,
      "åħ": 2013,
      "Ġann": 2014,
      "Ġlet": 2015,
      "ring": 2016,
      "ĠĠĠĠĠĠĠĠĠĠĠĠĠĠĠĠ": 2017,
      "ÐµÐ´": 2018,
      "Ġday": 2019,
      "Ġsel": 2020,
      "ito": 2021,
      "for": 2022,
      "rop": 2023,
      "ĠSp": 2024,
      "vern": 2025,
      "Ġpod": 2026,
      "Ġdata": 2027,
      "ĠÃº": 2028,
      "Ġcas": 2029,
      "Ġwa": 2030,
      "ua": 2031,
      "Ġfact": 2032,
      "ille": 2033,
      "Ġcount": 2034,
      "ira": 2035,
      ".,": 2036,
      "ÙĦÙĬ": 2037,
      "ÏĤ": 2038,
      "inal": 2039,
      "Ġsus": 2040,
      "ually": 2041,
      "ÙĴ": 2042,
      "iau": 2043,
      "Ð¸Ñı": 2044,
      "àºĻ": 2045,
      "Ġspeci": 2046,
      "ĠÑĩ": 2047,
      "zn": 2048,
      "ĠÙĪØ§ÙĦ": 2049,
      "Ġide": 2050,
      "ĠØ£ÙĨ": 2051,
      "bs": 2052,
      "Ġchild": 2053,
      "rem": 2054,
      "Ġkad": 2055,
      "ami": 2056,
      "Ġmas": 2057,
      "Ġplan": 2058,
      "rent": 2059,
      "ÑģÐº": 2060,
      "ĠØ¹ÙĦÙī": 2061,
      "Ġqui": 2062,
      "Ġeffect": 2063,
      "Î·": 2064,
      "read": 2065,
      "áĥĿ": 2066,
      "Ø§Ø¡": 2067,
      "aug": 2068,
      "Ã¡m": 2069,
      "ĠÃ¼": 2070,
      "Ġcu": 2071,
      "Ïħ": 2072,
      "put": 2073,
      "Ø§Ø¦": 2074,
      "Ġmain": 2075,
      "Ġpri": 2076,
      "ĠCon": 2077,
      "stand": 2078,
      "Ġcs": 2079,
      "Ġintern": 2080,
      "Ġfound": 2081,
      "aip": 2082,
      "Ġoper": 2083,
      "ness": 2084,
      "ãĢģ": 2085,
      "Ġhist": 2086,
      "Ġright": 2087,
      "Ġwhile": 2088,
      "ido": 2089,
      "Ġinte": 2090,
      "jo": 2091,
      "ĠSh": 2092,
      "ela": 2093,
      "unt": 2094,
      "ya": 2095,
      "Ġsal": 2096,
      "Ġinvest": 2097,
      "Ġnet": 2098,
      "go": 2099,
      "cs": 2100,
      "ĠSo": 2101,
      "ano": 2102,
      "Ġstat": 2103,
      "ouse": 2104,
      "ca": 2105,
      "Ġcer": 2106,
      "Ġce": 2107,
      "Ã±": 2108,
      "Ġhum": 2109,
      "Ġpost": 2110,
      "come": 2111,
      "__": 2112,
      "Ġang": 2113,
      "yl": 2114,
      "Ġê": 2115,
      "Ġcontin": 2116,
      "ĠX": 2117,
      "IN": 2118,
      "uv": 2119,
      "ĠáĬ": 2120,
      "Ġbas": 2121,
      "Ġlab": 2122,
      "Ġopp": 2123,
      "earch": 2124,
      "ora": 2125,
      "tal": 2126,
      "ister": 2127,
      "Ġlast": 2128,
      "ĠÂ«": 2129,
      "Ġopt": 2130,
      "vir": 2131,
      "ores": 2132,
      "Ġlead": 2133,
      "Ġmi": 2134,
      "à³į": 2135,
      "ĠÃ¥": 2136,
      "Ġol": 2137,
      "ena": 2138,
      "ĠAmer": 2139,
      "Ġcommun": 2140,
      "nes": 2141,
      "ĠØ®": 2142,
      "à§įà¦": 2143,
      "ä½": 2144,
      "Ġproduct": 2145,
      "rist": 2146,
      "akt": 2147,
      "Ġmov": 2148,
      "Ð°Ð´": 2149,
      "ĠInd": 2150,
      "Ġfel": 2151,
      "Ġboth": 2152,
      "Ġwater": 2153,
      "Å«s": 2154,
      "Ġpublic": 2155,
      "Ã´": 2156,
      "ÅĽ": 2157,
      "à¸²": 2158,
      "bl": 2159,
      "ums": 2160,
      "ames": 2161,
      "Ð°Ñģ": 2162,
      "Ġgreat": 2163,
      "\":": 2164,
      "ield": 2165,
      "))": 2166,
      "ĠPl": 2167,
      "Ġeller": 2168,
      "##": 2169,
      "Ã¤l": 2170,
      "Ġexpl": 2171,
      "ju": 2172,
      "Ġthree": 2173,
      "Ġear": 2174,
      "Ġrun": 2175,
      "ton": 2176,
      "oti": 2177,
      "Ġ,": 2178,
      "Ġsecond": 2179,
      "irm": 2180,
      "ized": 2181,
      "Ġals": 2182,
      "Ġseg": 2183,
      "Ġwer": 2184,
      "igt": 2185,
      "Ġtik": 2186,
      "ëĭ": 2187,
      "ined": 2188,
      "Ġsem": 2189,
      "Ġdep": 2190,
      "Ġmill": 2191,
      "ON": 2192,
      "ateg": 2193,
      "Ġgal": 2194,
      "Ġduring": 2195,
      "Ġuz": 2196,
      "áĢĲ": 2197,
      "Ġvide": 2198,
      "ĠØ§ÙĦØ¹": 2199,
      "Ġimportant": 2200,
      "ija": 2201,
      "ĠpÅĻ": 2202,
      "Ġlist": 2203,
      "ote": 2204,
      "Ã©ny": 2205,
      "Ġhere": 2206,
      "Ġdirect": 2207,
      "à±į": 2208,
      "Ġcome": 2209,
      "Ø§Ø¹": 2210,
      "ĠLa": 2211,
      "ĠPr": 2212,
      "ĠIs": 2213,
      "do": 2214,
      "by": 2215,
      "âĢĵ": 2216,
      "Ã¦r": 2217,
      "si": 2218,
      "Ø³Øª": 2219,
      "Ġvir": 2220,
      "ense": 2221,
      "Ġkas": 2222,
      "Ġnumber": 2223,
      "Ġsupport": 2224,
      "lect": 2225,
      "ogra": 2226,
      "Ġko": 2227,
      "ados": 2228,
      "cri": 2229,
      "Ġconsider": 2230,
      "ĠHow": 2231,
      "ww": 2232,
      "ĠBut": 2233,
      "Ġusing": 2234,
      "Ġjo": 2235,
      "Ð°Ð·": 2236,
      "Ġchar": 2237,
      "iving": 2238,
      "Ġsay": 2239,
      "Ġimp": 2240,
      "ket": 2241,
      "ering": 2242,
      "Ġstand": 2243,
      "ÑĭÐ½": 2244,
      "ĠÃ¡": 2245,
      "Ġincre": 2246,
      "ÐµÐº": 2247,
      "Ġvoor": 2248,
      "Ð¾Ð¹": 2249,
      "ĠâĢĶ": 2250,
      "sh": 2251,
      "Å¡k": 2252,
      "cul": 2253,
      "Ġref": 2254,
      "Ġdev": 2255,
      "nak": 2256,
      "Ġbes": 2257,
      "ule": 2258,
      "Ġbi": 2259,
      "Ġmust": 2260,
      "Ġess": 2261,
      "Ġkun": 2262,
      "ides": 2263,
      "var": 2264,
      "åĪ": 2265,
      "Â»": 2266,
      "ÙħØ§": 2267,
      "Ġplace": 2268,
      "Ġequ": 2269,
      "==": 2270,
      "Ġprote": 2271,
      "ĠEx": 2272,
      "Ã©p": 2273,
      "iter": 2274,
      "Ġcle": 2275,
      "uf": 2276,
      "Ġpra": 2277,
      "Ġpap": 2278,
      "iven": 2279,
      "Ġstill": 2280,
      "Ġthough": 2281,
      "the": 2282,
      "Ã¤nd": 2283,
      "Äģm": 2284,
      "AT": 2285,
      "Ġcomo": 2286,
      "Ġtre": 2287,
      "ision": 2288,
      "áĢĦ": 2289,
      "Ġmaj": 2290,
      "Ġneg": 2291,
      "kel": 2292,
      "Ġclass": 2293,
      "à¥ĩà¤": 2294,
      "ique": 2295,
      "ĠTe": 2296,
      "Ġuma": 2297,
      "zet": 2298,
      "Ġauf": 2299,
      "Ġni": 2300,
      "Ġanal": 2301,
      "ony": 2302,
      "Ġdin": 2303,
      "leg": 2304,
      "ona": 2305,
      "ÃŁ": 2306,
      "ology": 2307,
      "Ġhome": 2308,
      "à³įà²": 2309,
      "hor": 2310,
      "Ġho": 2311,
      "ically": 2312,
      "Ġki": 2313,
      "ns": 2314,
      "Ġdesign": 2315,
      "\".": 2316,
      "å®": 2317,
      "¢×": 2318,
      "yk": 2319,
      "Ġbro": 2320,
      "ye": 2321,
      "ĠÒ": 2322,
      "Å«t": 2323,
      "áĥĿáĥ": 2324,
      "Ġwar": 2325,
      "ici": 2326,
      "ĠÙ¾": 2327,
      "Ġfo": 2328,
      "Ġhav": 2329,
      "ani": 2330,
      "Ġà¤¸": 2331,
      "Ġexperien": 2332,
      "Ġpag": 2333,
      "Õ¥Õ": 2334,
      "ES": 2335,
      "Ġbeg": 2336,
      "imas": 2337,
      "ÑĥÐ»": 2338,
      "Ġtri": 2339,
      "Ġplus": 2340,
      "ĠØĮ": 2341,
      "âĢ¦": 2342,
      "Ã¡ny": 2343,
      "Ġqual": 2344,
      "St": 2345,
      "à¸Ļ": 2346,
      "This": 2347,
      "ero": 2348,
      "Ġshow": 2349,
      "uch": 2350,
      "It": 2351,
      "Ġaff": 2352,
      "Ġdra": 2353,
      "Ġaround": 2354,
      "à¥ģ": 2355,
      "Ġeng": 2356,
      "Ã¤t": 2357,
      "Ġq": 2358,
      "àª¾": 2359,
      "Ð¸Ð¼": 2360,
      "Ġgener": 2361,
      "ãģ®": 2362,
      "ĠÏĦ": 2363,
      "Ġcond": 2364,
      "AR": 2365,
      "Ġpur": 2366,
      "Ġreport": 2367,
      "áĢ¹áĢ": 2368,
      "fe": 2369,
      "ĠÄį": 2370,
      "Ġ*": 2371,
      "ativ": 2372,
      "ists": 2373,
      "amente": 2374,
      "eter": 2375,
      "ample": 2376,
      "Ãªn": 2377,
      "Ġikke": 2378,
      "Ġrequire": 2379,
      "mas": 2380,
      "Äģk": 2381,
      "à½Ħ": 2382,
      "med": 2383,
      "ori": 2384,
      "Ġtal": 2385,
      "ĠEuro": 2386,
      "Ġresult": 2387,
      "ĠWh": 2388,
      "EN": 2389,
      "ĠâĢĺ": 2390,
      "âĢĶ": 2391,
      "Ġlevel": 2392,
      "Ġbusiness": 2393,
      "ĠCl": 2394,
      "Ġud": 2395,
      "Ġgre": 2396,
      "Ġweek": 2397,
      "Ġair": 2398,
      "ĠUS": 2399,
      "wer": 2400,
      "Ġhealth": 2401,
      "view": 2402,
      "amin": 2403,
      "ission": 2404,
      "ploy": 2405,
      "itÃ©": 2406,
      "ying": 2407,
      "til": 2408,
      "Ġtop": 2409,
      "ļáŀ": 2410,
      "ĠsÃ¥": 2411,
      "Ġli": 2412,
      "Ġhan": 2413,
      "Ġmer": 2414,
      "åĲ": 2415,
      "igen": 2416,
      "Ġ+": 2417,
      "ished": 2418,
      "ÙĬØ¯": 2419,
      "vi": 2420,
      "ĠGr": 2421,
      "ĠOr": 2422,
      "Ġrece": 2423,
      "gi": 2424,
      "Ġmater": 2425,
      "Ġtechn": 2426,
      "Ġur": 2427,
      "Ġnorm": 2428,
      "ĠÄĳ": 2429,
      "Ġdom": 2430,
      "ques": 2431,
      "ĠuÅ¾": 2432,
      "à½´": 2433,
      "uj": 2434,
      "ĠEl": 2435,
      "Ġperform": 2436,
      "ÖĢÕ": 2437,
      "Ġhat": 2438,
      "ĠTr": 2439,
      "áĢ¼": 2440,
      "istr": 2441,
      "ikt": 2442,
      "sl": 2443,
      "à²¿": 2444,
      "Õ¸ÖĤÕ": 2445,
      "Î»": 2446,
      "iden": 2447,
      "Ġbar": 2448,
      "Ġing": 2449,
      "lex": 2450,
      "unk": 2451,
      "Ġvil": 2452,
      "dz": 2453,
      "Ġpresent": 2454,
      "Ġbre": 2455,
      "nen": 2456,
      "Ġtu": 2457,
      "Ġdisc": 2458,
      "Ġsing": 2459,
      "Ġput": 2460,
      "Ð¾Ñģ": 2461,
      "Ġwrit": 2462,
      "use": 2463,
      "iaus": 2464,
      "ways": 2465,
      "Ġcal": 2466,
      "à¦¿à¦": 2467,
      "Ġhal": 2468,
      "reg": 2469,
      "ĠAm": 2470,
      "aire": 2471,
      "oje": 2472,
      "Ñī": 2473,
      "Ġmul": 2474,
      "Ġinterest": 2475,
      "à½Ĥ": 2476,
      "met": 2477,
      "Ġdig": 2478,
      "eren": 2479,
      "Ġsig": 2480,
      "Ð¸ÑĢ": 2481,
      "ief": 2482,
      "ĠOn": 2483,
      "sel": 2484,
      "ends": 2485,
      "åľ": 2486,
      "Ã¶n": 2487,
      "çĶ": 2488,
      "AN": 2489,
      "uma": 2490,
      "conom": 2491,
      "nÃ©": 2492,
      "Ġans": 2493,
      "mon": 2494,
      "Ġsmall": 2495,
      "à±įà°": 2496,
      "×Ĳ": 2497,
      "Ġlim": 2498,
      "ÃŃa": 2499,
      "ection": 2500,
      "itions": 2501,
      "Ø¦": 2502,
      "Ġprin": 2503,
      "Ð¾Ð±": 2504,
      "ĠThey": 2505,
      "ky": 2506,
      "Ġwithout": 2507,
      "Ġpal": 2508,
      "less": 2509,
      "ware": 2510,
      "Ġza": 2511,
      "eld": 2512,
      "Ġinc": 2513,
      "Ġland": 2514,
      "Ġiss": 2515,
      "Ġsuc": 2516,
      "Ġid": 2517,
      "ury": 2518,
      "æĪ": 2519,
      "ements": 2520,
      "omb": 2521,
      "Ġenc": 2522,
      "Ġcho": 2523,
      "org": 2524,
      "ĠPar": 2525,
      "Ġlang": 2526,
      "Ġold": 2527,
      "à¸²à¸": 2528,
      "Ġcost": 2529,
      "lev": 2530,
      "Î¯": 2531,
      "Ð¸Ðº": 2532,
      "Ġactiv": 2533,
      "ako": 2534,
      "Ġhapp": 2535,
      "Ġmais": 2536,
      "Ġeas": 2537,
      "Ġlaw": 2538,
      "ÛĲ": 2539,
      "nek": 2540,
      "We": 2541,
      "ava": 2542,
      "Ġesc": 2543,
      "ias": 2544,
      "ĠThere": 2545,
      "Ġfew": 2546,
      "à°¿": 2547,
      "iam": 2548,
      "ining": 2549,
      "Ð¾Ð³Ð¾": 2550,
      "nie": 2551,
      "ÙĪÙħ": 2552,
      "fl": 2553,
      "áŀĢ": 2554,
      "ĠmÃ¡s": 2555,
      "oms": 2556,
      "ĠEr": 2557,
      "áĢĢ": 2558,
      "Ġâ": 2559,
      "atch": 2560,
      "Ġnga": 2561,
      "Ġopen": 2562,
      "idad": 2563,
      "ĠPh": 2564,
      "ÙĨØ¯": 2565,
      "anc": 2566,
      "Ġprom": 2567,
      "ls": 2568,
      "ĠDet": 2569,
      "Ġproject": 2570,
      "Ġcase": 2571,
      "ĠÐ½Ðµ": 2572,
      "ĠTo": 2573,
      "ĠÐ¶": 2574,
      "sta": 2575,
      "Ġett": 2576,
      "iversity": 2577,
      "Ġdos": 2578,
      "ĠÙĦÙĦ": 2579,
      "ÑģÑı": 2580,
      "ji": 2581,
      "Ġ}": 2582,
      "ĠAll": 2583,
      "Ġ--": 2584,
      "Ġzijn": 2585,
      "Ġorder": 2586,
      "áŀĵ": 2587,
      "Îº": 2588,
      "Ġincluding": 2589,
      "Ġmal": 2590,
      "ours": 2591,
      "str": 2592,
      "à´¿": 2593,
      "Ã°": 2594,
      "Ġpoint": 2595,
      "Ġpie": 2596,
      "Ã©d": 2597,
      "Ġtrad": 2598,
      "à¤²": 2599,
      "à¬¾": 2600,
      "vol": 2601,
      "ately": 2602,
      "ius": 2603,
      "Ġexp": 2604,
      "Ġbuild": 2605,
      "br": 2606,
      "Ġkr": 2607,
      "Ġappro": 2608,
      "Ġfeel": 2609,
      "Ġpolit": 2610,
      "Ġnov": 2611,
      "aka": 2612,
      "Ġmass": 2613,
      "Ġname": 2614,
      "Ġber": 2615,
      "à¥įà¤¯": 2616,
      "Ġpower": 2617,
      "Ġten": 2618,
      "Ġanother": 2619,
      "Ġbook": 2620,
      "Ø¸": 2621,
      "Ġsitu": 2622,
      "Ġdal": 2623,
      "ĠÃ®": 2624,
      "Ġschool": 2625,
      "://": 2626,
      "Ġadv": 2627,
      "áĢŃáĢ¯áĢ": 2628,
      "à¤®": 2629,
      "ots": 2630,
      "ÑĥÑĢ": 2631,
      "hi": 2632,
      "ÑĦ": 2633,
      "áĮ": 2634,
      "Ġident": 2635,
      "Ġproper": 2636,
      "dy": 2637,
      "Ġtel": 2638,
      "Ġthings": 2639,
      "Î¼": 2640,
      "ĠØ§ÙĦØŃ": 2641,
      "ights": 2642,
      "Ġgoing": 2643,
      "mente": 2644,
      "pre": 2645,
      "Ġez": 2646,
      "ĠFr": 2647,
      "ÙĦØ§": 2648,
      "Ġmarket": 2649,
      "à·Ĭ": 2650,
      "Ġport": 2651,
      "Ġteam": 2652,
      "ided": 2653,
      "Ġlik": 2654,
      "Ġyn": 2655,
      "ĠBl": 2656,
      "Ġindivid": 2657,
      "à½ĳ": 2658,
      "Ġfar": 2659,
      "ÄĹl": 2660,
      "à½º": 2661,
      "ĠÑį": 2662,
      "à¯ģ": 2663,
      "ittle": 2664,
      "Ġfac": 2665,
      "Ã¡z": 2666,
      "cht": 2667,
      "ÙĩÙħ": 2668,
      "ived": 2669,
      "Ġfour": 2670,
      "Ġreally": 2671,
      "Ġdar": 2672,
      "å°": 2673,
      "ĠMan": 2674,
      "è¿": 2675,
      "ĠáĪ": 2676,
      "Ð¸Ð²": 2677,
      "Ġdan": 2678,
      "Ã©sz": 2679,
      "len": 2680,
      "Ġtoo": 2681,
      "Ð½Ð°": 2682,
      "ude": 2683,
      "ĠAt": 2684,
      "iod": 2685,
      "à§°": 2686,
      "iten": 2687,
      "Ġgame": 2688,
      "Äģt": 2689,
      "OR": 2690,
      "ÄĹj": 2691,
      "Ġpriv": 2692,
      "ium": 2693,
      "ites": 2694,
      "Ġmight": 2695,
      "ently": 2696,
      "Ã¤m": 2697,
      "Ø§ØŃ": 2698,
      "hod": 2699,
      "cient": 2700,
      "rt": 2701,
      "ald": 2702,
      "Ġcir": 2703,
      "ething": 2704,
      "Ġnor": 2705,
      "mat": 2706,
      "ĠĠĠĠĠĠĠĠĠĠĠ": 2707,
      "arge": 2708,
      "rag": 2709,
      "æĺ": 2710,
      "Ġpay": 2711,
      "Ġsou": 2712,
      "Ġfre": 2713,
      "lish": 2714,
      "Ġocc": 2715,
      "soci": 2716,
      "Ã¼n": 2717,
      "Ġhab": 2718,
      "Ġstate": 2719,
      "ox": 2720,
      "tre": 2721,
      "Ġfut": 2722,
      "Ġmonth": 2723,
      "work": 2724,
      "à®¿": 2725,
      "ola": 2726,
      "à¨¾": 2727,
      "Ġless": 2728,
      "Ġáĭ": 2729,
      "ĠfÃ¼r": 2730,
      "Ġgovern": 2731,
      "à¬¿": 2732,
      "áĢ½": 2733,
      "à¾±": 2734,
      "ope": 2735,
      "Äģd": 2736,
      "ones": 2737,
      "ĠEng": 2738,
      "Ġbetter": 2739,
      "ush": 2740,
      "à¹Ī": 2741,
      "áĢ±áĢ": 2742,
      "sa": 2743,
      "Ġtas": 2744,
      "Ġcompany": 2745,
      "mes": 2746,
      "ĠÐµ": 2747,
      "Ġsocial": 2748,
      "ump": 2749,
      "AS": 2750,
      "Ġredu": 2751,
      "lease": 2752,
      "itor": 2753,
      "à¤¸": 2754,
      "iga": 2755,
      "Ġapplic": 2756,
      "ĠÃ¨": 2757,
      "Ġmanag": 2758,
      "àŃį": 2759,
      "Ð°Ð³": 2760,
      "Ġrecord": 2761,
      "ils": 2762,
      "ids": 2763,
      "jet": 2764,
      "Ġresearch": 2765,
      "ption": 2766,
      "Ġorig": 2767,
      "à»Ī": 2768,
      "acter": 2769,
      "ìĹ": 2770,
      "ailable": 2771,
      "Ġvien": 2772,
      "ender": 2773,
      "ĠJoh": 2774,
      "Ġask": 2775,
      "Ġ#": 2776,
      "Ġprost": 2777,
      "Ġfamily": 2778,
      "ĠVer": 2779,
      "oma": 2780,
      "Ã²": 2781,
      "ĠNo": 2782,
      "ĠGo": 2783,
      "Äĵj": 2784,
      "Äģj": 2785,
      "vet": 2786,
      "à¤Ĥ": 2787,
      "Ġkeep": 2788,
      "ÙĨØ§": 2789,
      "icle": 2790,
      "If": 2791,
      "Ġchang": 2792,
      "Ġave": 2793,
      "Ġhard": 2794,
      "isi": 2795,
      "Ġsw": 2796,
      "not": 2797,
      "ÙĬÙĦ": 2798,
      "lt": 2799,
      "Ú¯": 2800,
      "àº²àº": 2801,
      "aim": 2802,
      "De": 2803,
      "à°¾": 2804,
      "à¼ĭà½ĸ": 2805,
      "esp": 2806,
      "lik": 2807,
      "Ġelect": 2808,
      "Ġreturn": 2809,
      "ä¸Ģ": 2810,
      "Ġfree": 2811,
      "ilt": 2812,
      "Ġwithin": 2813,
      "AL": 2814,
      "Ġ\\": 2815,
      "Ġminut": 2816,
      "ula": 2817,
      "Ġze": 2818,
      "ican": 2819,
      "ĠSu": 2820,
      "Ð¸Ðµ": 2821,
      "ĠØ§ÙĦØ³": 2822,
      "ource": 2823,
      "nÄĽ": 2824,
      "ÅĪ": 2825,
      "Ġsich": 2826,
      "Ġagainst": 2827,
      "Ġsomething": 2828,
      "roll": 2829,
      "Ġpad": 2830,
      "×¢×": 2831,
      "Ġorganiz": 2832,
      "Ġà¤ª": 2833,
      "àª¾àª": 2834,
      "pes": 2835,
      "Ã¨re": 2836,
      "ÏĮ": 2837,
      "Ġmemb": 2838,
      "thing": 2839,
      "Ġarr": 2840,
      "Ġhead": 2841,
      "Ġwon": 2842,
      "sy": 2843,
      "ĠShe": 2844,
      "Ġalle": 2845,
      "ential": 2846,
      "ape": 2847,
      "sc": 2848,
      "ĠCol": 2849,
      "ÙĦÙĥ": 2850,
      "IT": 2851,
      "este": 2852,
      "Ġfri": 2853,
      "ĠmÃ¥": 2854,
      "àºĻàº": 2855,
      "kor": 2856,
      "agn": 2857,
      "Ġprim": 2858,
      "bu": 2859,
      "lar": 2860,
      "gu": 2861,
      "Ġgrow": 2862,
      "Ġnext": 2863,
      "Ġvideo": 2864,
      "Ġpast": 2865,
      "ieÅ¡": 2866,
      "Ġfilm": 2867,
      "Ð´Ð°": 2868,
      "áĬķ": 2869,
      "Ġbody": 2870,
      "Ġjob": 2871,
      "Ġsince": 2872,
      "Ġcurrent": 2873,
      "vert": 2874,
      "ĠQu": 2875,
      "zel": 2876,
      "aint": 2877,
      "ĠrÃ©": 2878,
      "ances": 2879,
      "ĠCan": 2880,
      "Ġeine": 2881,
      "cle": 2882,
      "Ã½ch": 2883,
      "Ġbene": 2884,
      "Ãµes": 2885,
      "Ġable": 2886,
      "abil": 2887,
      "ÙĪØ¯": 2888,
      "Ġaus": 2889,
      "ster": 2890,
      "ÑĬ": 2891,
      "mit": 2892,
      "à±ģ": 2893,
      "Ġment": 2894,
      "ems": 2895,
      "Ġmom": 2896,
      ",âĢĿ": 2897,
      "Ġalways": 2898,
      "etting": 2899,
      "Ġmor": 2900,
      "ieve": 2901,
      "ults": 2902,
      "inen": 2903,
      "ÃŃm": 2904,
      "ety": 2905,
      "Ġnatur": 2906,
      "Ġlittle": 2907,
      "ards": 2908,
      "æĸ": 2909,
      "present": 2910,
      "ĠÃ©t": 2911,
      "Ġconta": 2912,
      "à½ĵ": 2913,
      "elen": 2914,
      "Ġlocal": 2915,
      "ser": 2916,
      "ries": 2917,
      "ume": 2918,
      "Ġsen": 2919,
      "Ġfol": 2920,
      "Ġgive": 2921,
      "Ġfollowing": 2922,
      "Ġsym": 2923,
      "dom": 2924,
      "oney": 2925,
      "Ġà¤®": 2926,
      "Ġspecial": 2927,
      "jon": 2928,
      "Ġlib": 2929,
      "oto": 2930,
      "ĠÐ»": 2931,
      "zÅĳ": 2932,
      "ÑģÑĤÐ²": 2933,
      "viron": 2934,
      "à®¿à®": 2935,
      "ee": 2936,
      "Ä«t": 2937,
      "Ġmaterial": 2938,
      "Ġsuccess": 2939,
      "ÈĽ": 2940,
      "Î¬": 2941,
      "Ġexample": 2942,
      "dd": 2943,
      "à²¿à²": 2944,
      "Ã³w": 2945,
      "ĠMa": 2946,
      "arch": 2947,
      "fr": 2948,
      "imin": 2949,
      "ĠMed": 2950,
      "Ġcontrol": 2951,
      "Ġkar": 2952,
      "à¬°": 2953,
      "ctor": 2954,
      "Ġlot": 2955,
      "Ġtreat": 2956,
      "Ð¾Ðº": 2957,
      "Ġcaus": 2958,
      "Ġentre": 2959,
      "Ã¶k": 2960,
      "à¥įà¤°": 2961,
      "ÃŃv": 2962,
      "Re": 2963,
      "à¤¹": 2964,
      "Ġuntil": 2965,
      "Ġprovide": 2966,
      "Ġhv": 2967,
      "ait": 2968,
      "Ġimpro": 2969,
      "itive": 2970,
      "ciÃ³": 2971,
      "Ġpersonal": 2972,
      "IS": 2973,
      "ĠNe": 2974,
      "ences": 2975,
      "idd": 2976,
      "asi": 2977,
      "ijk": 2978,
      "à´¿à´": 2979,
      "ĠNor": 2980,
      "Ġti": 2981,
      "comm": 2982,
      "Ġperiod": 2983,
      "mo": 2984,
      "Ġju": 2985,
      "rug": 2986,
      "Ġpossible": 2987,
      "Ġoften": 2988,
      "Ġaan": 2989,
      "ĠØ¥ÙĦÙī": 2990,
      "kal": 2991,
      "Å¡t": 2992,
      "à¥¤": 2993,
      "Ġchange": 2994,
      "Ø§Ø³Øª": 2995,
      "áĢĻ": 2996,
      "ego": 2997,
      "ift": 2998,
      "áĢ·": 2999,
      "à¸Ń": 3000,
      "aps": 3001,
      "ÃŃn": 3002,
      "rij": 3003,
      "Ù¾": 3004,
      "æĹ": 3005,
      "Ġoffer": 3006,
      "Ġnever": 3007,
      "olo": 3008,
      "ester": 3009,
      "Ġprinci": 3010,
      "Ġemploy": 3011,
      "Ġline": 3012,
      "Ġfood": 3013,
      "Ġprofess": 3014,
      "Ġkont": 3015,
      "thers": 3016,
      "Ġris": 3017,
      "Ġfull": 3018,
      "Ġste": 3019,
      "atis": 3020,
      "Ġseks": 3021,
      "Ġie": 3022,
      "eder": 3023,
      "self": 3024,
      "Ġcell": 3025,
      "Ġsuper": 3026,
      "Äĵt": 3027,
      "ãģĦ": 3028,
      "Ġsum": 3029,
      "Ġeg": 3030,
      "Ġvagy": 3031,
      "aren": 3032,
      "ustom": 3033,
      "ording": 3034,
      "ales": 3035,
      "Ġunderstand": 3036,
      "Ġarea": 3037,
      "Ġproblem": 3038,
      "atu": 3039,
      "Ġbra": 3040,
      "Ûģ": 3041,
      "Ġsent": 3042,
      "Ġcomb": 3043,
      "Ġavailable": 3044,
      "à·Ĵ": 3045,
      "ĠGod": 3046,
      "Ġservice": 3047,
      "Ġbig": 3048,
      "ole": 3049,
      "Ġmai": 3050,
      "isa": 3051,
      "Ġsever": 3052,
      "×¨": 3053,
      "ches": 3054,
      "irt": 3055,
      "Ġeconom": 3056,
      "ĠÙħØ¹": 3057,
      "zd": 3058,
      "ĠÑı": 3059,
      "ĠCar": 3060,
      "Ġtype": 3061,
      "RE": 3062,
      "ÛĴ": 3063,
      "As": 3064,
      "ĠØ¨Ø§ÙĦ": 3065,
      "ĠJe": 3066,
      "Ġchildren": 3067,
      "Ġbit": 3068,
      "Ġwhe": 3069,
      "Ġfund": 3070,
      "ints": 3071,
      "ulation": 3072,
      "Å¾i": 3073,
      "Ġhy": 3074,
      "ength": 3075,
      "Ġallow": 3076,
      "La": 3077,
      "orts": 3078,
      "ÑĤÐ¾": 3079,
      "ended": 3080,
      "Ġkor": 3081,
      "ients": 3082,
      "ĠMe": 3083,
      "ĠIntern": 3084,
      "Ø§Ùģ": 3085,
      "Ġba": 3086,
      "Ġprop": 3087,
      "Ð¸Ñĩ": 3088,
      "ÑĭÐ»": 3089,
      "Ġaddition": 3090,
      "Ġappear": 3091,
      "oud": 3092,
      "Ò£": 3093,
      "ungen": 3094,
      "Al": 3095,
      "aks": 3096,
      "ably": 3097,
      "ÐµÐ¹": 3098,
      "Ġonline": 3099,
      "Ġstor": 3100,
      "Ġ×Ĳ": 3101,
      "Ġview": 3102,
      "à«ĩ": 3103,
      "Ġpract": 3104,
      "wh": 3105,
      "ley": 3106,
      "ĠAz": 3107,
      "Äĵr": 3108,
      "Ġdeg": 3109,
      "à§ĩà¦": 3110,
      "Ġconn": 3111,
      "ëĭ¤": 3112,
      "ische": 3113,
      "una": 3114,
      "ĠWhat": 3115,
      "ĠnÃ£o": 3116,
      "ĠbÅ«": 3117,
      "ror": 3118,
      "eta": 3119,
      "Ġupp": 3120,
      "opp": 3121,
      "Ġturn": 3122,
      "rav": 3123,
      "Ġhuman": 3124,
      "Ġwin": 3125,
      "Ġtai": 3126,
      "Ġindust": 3127,
      "Ø°Ø§": 3128,
      "Ġoffic": 3129,
      "áĥĺáĥ¡": 3130,
      "Ġger": 3131,
      "ified": 3132,
      "áĥĶáĥĳ": 3133,
      "Åĳl": 3134,
      "Ġens": 3135,
      "Ġside": 3136,
      "ending": 3137,
      "Ø§Ø¬": 3138,
      "Ġkap": 3139,
      "'re": 3140,
      "iste": 3141,
      "ival": 3142,
      "Ġsure": 3143,
      "Ġred": 3144,
      "Ã¹": 3145,
      "ht": 3146,
      "Ã¨s": 3147,
      "Ġtru": 3148,
      "Ġlarge": 3149,
      "Pro": 3150,
      "sÃ©g": 3151,
      "Ģà¸": 3152,
      "Ġaccess": 3153,
      "Ġcalled": 3154,
      "iko": 3155,
      "Ġcult": 3156,
      "Ã³d": 3157,
      "Ġwr": 3158,
      "An": 3159,
      "à³ģ": 3160,
      "lin": 3161,
      "Ø±ÙĪ": 3162,
      "ortun": 3163,
      "ched": 3164,
      "Ġsie": 3165,
      "Ġok": 3166,
      "Ġexperience": 3167,
      "ijos": 3168,
      "Ġindividual": 3169,
      "else": 3170,
      "ĠGe": 3171,
      "ural": 3172,
      "duct": 3173,
      "Ġconc": 3174,
      "à¼ĭà½Ĥ": 3175,
      "ĠØ¢": 3176,
      "aul": 3177,
      "ised": 3178,
      "Ġsob": 3179,
      "ney": 3180,
      "Ġevent": 3181,
      "Ġszer": 3182,
      "'m": 3183,
      "Ġkind": 3184,
      "Ġdeterm": 3185,
      "set": 3186,
      "£áĥ": 3187,
      "Ġlove": 3188,
      "mun": 3189,
      "Ġpress": 3190,
      "Ġgro": 3191,
      "ìĿ´": 3192,
      "Ġnav": 3193,
      "hal": 3194,
      "ĠCent": 3195,
      "áŀĶ": 3196,
      "Ø±Ø¨": 3197,
      "Ġdies": 3198,
      "ÐµÑģ": 3199,
      "ĠØ§ÙĦÙĤ": 3200,
      "peci": 3201,
      "cz": 3202,
      "Ð¸Ñģ": 3203,
      "ĠØµ": 3204,
      "ĠUniversity": 3205,
      "Ġlog": 3206,
      "Ġdag": 3207,
      "Ã¤Ã¤": 3208,
      "Ġinde": 3209,
      "Ġya": 3210,
      "Ð¾Ð¶": 3211,
      "umu": 3212,
      "For": 3213,
      "Ġnie": 3214,
      "Ġdiv": 3215,
      "åĽ": 3216,
      "Ġnam": 3217,
      "Î¿Ïħ": 3218,
      "ĠRes": 3219,
      "En": 3220,
      "ĠkÃ¶z": 3221,
      "ÙĭØ§": 3222,
      "Öģ": 3223,
      "ID": 3224,
      "mp": 3225,
      "áĢĶ": 3226,
      "Ġdam": 3227,
      "Ġcertain": 3228,
      "cha": 3229,
      "ray": 3230,
      "Ġhon": 3231,
      "Ġdays": 3232,
      "Ä«bas": 3233,
      "ĠWhen": 3234,
      "Ġdoc": 3235,
      "Ġexpect": 3236,
      "ä¹": 3237,
      "Ġsite": 3238,
      "Ġgroup": 3239,
      "ĠØ§ÙĦØ¨": 3240,
      "Ġhom": 3241,
      "åĬ": 3242,
      "ischen": 3243,
      "Ġutil": 3244,
      "Ġinclude": 3245,
      "vin": 3246,
      "eli": 3247,
      "ĠBr": 3248,
      "yst": 3249,
      "Ġparticular": 3250,
      "ĠSte": 3251,
      "Ġmes": 3252,
      "Ġlu": 3253,
      "Le": 3254,
      "uring": 3255,
      "zo": 3256,
      "Ġrespons": 3257,
      "ograph": 3258,
      "Ġdest": 3259,
      "ema": 3260,
      "Ġexist": 3261,
      "Ġsn": 3262,
      "aking": 3263,
      "ĠDie": 3264,
      "iab": 3265,
      "Ġí": 3266,
      "Ø§Ø²": 3267,
      "à°¾à°": 3268,
      "Ġtar": 3269,
      "Ġpan": 3270,
      "erson": 3271,
      "Ø§ÙĤ": 3272,
      "Æ°": 3273,
      "à»ī": 3274,
      "ĠvÃ¦": 3275,
      "las": 3276,
      "Ġlight": 3277,
      "ilar": 3278,
      "ono": 3279,
      "Ġdeb": 3280,
      "Ø¥": 3281,
      "Ġgot": 3282,
      "anto": 3283,
      "osp": 3284,
      "Ġhu": 3285,
      "Ġmajor": 3286,
      "Ð¸Ñħ": 3287,
      "ĠChrist": 3288,
      "Ġmean": 3289,
      "ĠØ§ÙĦÙĨ": 3290,
      "ila": 3291,
      "Ġnecess": 3292,
      "Ġservices": 3293,
      "Ġnicht": 3294,
      "iones": 3295,
      "ģà¸": 3296,
      "itar": 3297,
      "Ġca": 3298,
      "ÈĻ": 3299,
      "Ã¡j": 3300,
      "Ġvalue": 3301,
      "ëĬ": 3302,
      "vious": 3303,
      "Ġbed": 3304,
      "Ġont": 3305,
      "Ġpi": 3306,
      "Ġjed": 3307,
      "áŀĦ": 3308,
      "cu": 3309,
      "Ġcel": 3310,
      "xim": 3311,
      "net": 3312,
      "ĠÑĪ": 3313,
      "ota": 3314,
      "hy": 3315,
      "Ġleft": 3316,
      "Ġmeans": 3317,
      "Ġbir": 3318,
      "å¹": 3319,
      "ģàº": 3320,
      "Ġrefer": 3321,
      "rin": 3322,
      "Ġavec": 3323,
      "iva": 3324,
      "à²¾": 3325,
      "cks": 3326,
      "ination": 3327,
      "ãģ«": 3328,
      "ges": 3329,
      "iner": 3330,
      "avor": 3331,
      "Ġtimes": 3332,
      "aring": 3333,
      "Ġach": 3334,
      "ison": 3335,
      "Ġlat": 3336,
      "âĢĿ.": 3337,
      "Ð¾Ð·": 3338,
      "hel": 3339,
      "erc": 3340,
      "Ġakt": 3341,
      "áŀĺ": 3342,
      "Ġinvol": 3343,
      "ected": 3344,
      "Ġcomplet": 3345,
      "What": 3346,
      "Ġcourse": 3347,
      "àµģ": 3348,
      "Ġbecome": 3349,
      "Ġtit": 3350,
      "ÛĮÙĨ": 3351,
      "Ġbal": 3352,
      "ross": 3353,
      "Ġamely": 3354,
      "Ð°Ñħ": 3355,
      "idence": 3356,
      "ĠUnited": 3357,
      "outh": 3358,
      "ĠAb": 3359,
      "Ġmeet": 3360,
      "à¹ī": 3361,
      "áį": 3362,
      "Ġspecific": 3363,
      "ĠFl": 3364,
      "Ġved": 3365,
      "ÄŁ": 3366,
      "Ġprob": 3367,
      "hu": 3368,
      "Ġfig": 3369,
      "ĠÃŃ": 3370,
      "Ġtro": 3371,
      "Ġbased": 3372,
      "ands": 3373,
      "Ġmem": 3374,
      "ttp": 3375,
      "Ġknown": 3376,
      "ried": 3377,
      "Ġdue": 3378,
      "Ġmethod": 3379,
      "Ġquestion": 3380,
      "Ġker": 3381,
      "Ġsoci": 3382,
      "ips": 3383,
      "Ã©rt": 3384,
      "Ġvai": 3385,
      "ĠÐ¡": 3386,
      "Ġabs": 3387,
      "ÑĥÐ´": 3388,
      "Ġmis": 3389,
      "à¼ĭà½ĳ": 3390,
      "Ġfu": 3391,
      "kan": 3392,
      "áĢķ": 3393,
      "Ġcamp": 3394,
      "He": 3395,
      "ples": 3396,
      "ĠÑģÑĤ": 3397,
      "Ġsont": 3398,
      "Ġmillion": 3399,
      "ither": 3400,
      "egen": 3401,
      "Ġlater": 3402,
      "AM": 3403,
      "ared": 3404,
      "Ġplac": 3405,
      "=\"": 3406,
      "Ġdevelopment": 3407,
      "ØªØ±": 3408,
      "ĠÐ¾ÑĤ": 3409,
      ".)": 3410,
      "ĠCo": 3411,
      "jen": 3412,
      "Ġemb": 3413,
      "Ġstudents": 3414,
      "Ġdella": 3415,
      "kom": 3416,
      "ĠWor": 3417,
      "Ġseveral": 3418,
      "ills": 3419,
      "ĠÃ®n": 3420,
      "Ġfur": 3421,
      "Ġsays": 3422,
      "endo": 3423,
      "You": 3424,
      "ĠHowever": 3425,
      "iy": 3426,
      "Ġmaking": 3427,
      "áĢ²": 3428,
      "ĠGu": 3429,
      "ê³": 3430,
      "à¶±": 3431,
      "à¤¾à¤°": 3432,
      "ades": 3433,
      "Ġbei": 3434,
      "Ġsignific": 3435,
      "erd": 3436,
      "pon": 3437,
      "ĠApp": 3438,
      "amm": 3439,
      "ingen": 3440,
      "iro": 3441,
      "rel": 3442,
      "nu": 3443,
      "ĠÏĢ": 3444,
      "Ġfunction": 3445,
      "ÙħÙĦ": 3446,
      "ĠPol": 3447,
      "cher": 3448,
      "Ġstudy": 3449,
      "ebru": 3450,
      "rie": 3451,
      "Ġvid": 3452,
      "Ġcountry": 3453,
      "Ġbil": 3454,
      "han": 3455,
      "ĠIl": 3456,
      "ĠÎ±": 3457,
      "ream": 3458,
      "Ã¡v": 3459,
      "Ã¡ban": 3460,
      "Ġvolt": 3461,
      "à¼ĭà½¦": 3462,
      "Ġgiven": 3463,
      "itet": 3464,
      "Ã©es": 3465,
      "ĠDo": 3466,
      "Ġgovernment": 3467,
      "Ð¾ÑģÑĤ": 3468,
      "Õ¸Õ": 3469,
      "á»į": 3470,
      "ÙĬÙħ": 3471,
      "à¨¾à¨": 3472,
      "Ûİ": 3473,
      "ases": 3474,
      "Ø¹Ø¯": 3475,
      "ĠØ§ÙĦØ¬": 3476,
      "Ġdoor": 3477,
      "apt": 3478,
      "Ġphys": 3479,
      "ĠØ¦": 3480,
      "à¹Ģà¸": 3481,
      "áŀŁ": 3482,
      "Ġenviron": 3483,
      "clus": 3484,
      "ĠMay": 3485,
      "fa": 3486,
      "ability": 3487,
      "Ġshort": 3488,
      "Ġcommon": 3489,
      "ources": 3490,
      "Ġaud": 3491,
      "à²¾à²": 3492,
      "anda": 3493,
      "Ġremain": 3494,
      "Ġlearn": 3495,
      "Ġgar": 3496,
      "Ġmodel": 3497,
      "ffic": 3498,
      "esta": 3499,
      "sen": 3500,
      "Ġcreat": 3501,
      "Äķ": 3502,
      "Ġobject": 3503,
      "Ĥ¬": 3504,
      "anu": 3505,
      "IC": 3506,
      "ires": 3507,
      "Ġaway": 3508,
      "Ġdesc": 3509,
      "Ġnos": 3510,
      "ëĬĶ": 3511,
      "Ġener": 3512,
      "ured": 3513,
      "ĠPer": 3514,
      "ÙĦÙħ": 3515,
      "aga": 3516,
      "ourn": 3517,
      "Ġeduc": 3518,
      "urg": 3519,
      "Ġdro": 3520,
      "Ġworking": 3521,
      "uts": 3522,
      "ify": 3523,
      "ocus": 3524,
      "Ġtab": 3525,
      "Ġhot": 3526,
      "Ġpen": 3527,
      "II": 3528,
      "ÙĬØ§": 3529,
      "Ġhaving": 3530,
      "ogle": 3531,
      "Ġsens": 3532,
      "AC": 3533,
      "Ð¸Ð¸": 3534,
      "Ð¸Ð·": 3535,
      "Ġwhy": 3536,
      "cing": 3537,
      "×ľ": 3538,
      "Ġrepresent": 3539,
      "ribut": 3540,
      "Ã³r": 3541,
      "szer": 3542,
      "pen": 3543,
      "ĠÅł": 3544,
      "zer": 3545,
      "Ġothers": 3546,
      "ĠMin": 3547,
      "Ð»Ñı": 3548,
      "iting": 3549,
      "ÙĤØ¯": 3550,
      "bal": 3551,
      "uje": 3552,
      "ĠEurope": 3553,
      "ãģĹ": 3554,
      "Ġlaik": 3555,
      "Ġek": 3556,
      "Ġfinan": 3557,
      "ĠÏĥ": 3558,
      "Ġáī": 3559,
      "à¯ģà®": 3560,
      "Ġrad": 3561,
      "Ġfinal": 3562,
      "Ġcou": 3563,
      "stit": 3564,
      "ager": 3565,
      "ĠThat": 3566,
      "ÙĥÙĨ": 3567,
      "lem": 3568,
      "æľī": 3569,
      "ĠlÃ¤": 3570,
      "à½¢": 3571,
      "enden": 3572,
      "ĠÐĴ": 3573,
      "Ġmoney": 3574,
      "Ġmoment": 3575,
      "å¾": 3576,
      "jer": 3577,
      "ĠIm": 3578,
      "Ø¨Ø±": 3579,
      "Ġwerden": 3580,
      "Ġà¤¹": 3581,
      "hl": 3582,
      "ising": 3583,
      "à¸Ļà¸": 3584,
      "fect": 3585,
      "oman": 3586,
      "ication": 3587,
      "Ġcustom": 3588,
      "Ġpercent": 3589,
      "Ġautom": 3590,
      "Ġnep": 3591,
      "inti": 3592,
      "Ġniet": 3593,
      "iant": 3594,
      "Ġcomput": 3595,
      "US": 3596,
      "Ê»": 3597,
      "ED": 3598,
      "Ġlow": 3599,
      "kÃ¶": 3600,
      "ĠReg": 3601,
      "Ġ...": 3602,
      "à°¿à°": 3603,
      "lished": 3604,
      "Ġrep": 3605,
      "Ġgeneral": 3606,
      "ãģ§": 3607,
      "iske": 3608,
      "'ve": 3609,
      "Ġsist": 3610,
      "áĢ®": 3611,
      "Ġclear": 3612,
      "ãģ¨": 3613,
      "fo": 3614,
      "Ġexc": 3615,
      "Ġdou": 3616,
      "äºº": 3617,
      "ĠJohn": 3618,
      "Un": 3619,
      "Ġwebs": 3620,
      "uri": 3621,
      "ĠSc": 3622,
      "Ġteach": 3623,
      "áīµ": 3624,
      "ogn": 3625,
      "Ġmeas": 3626,
      "Ġill": 3627,
      "åį": 3628,
      "ĠThese": 3629,
      "Ġcy": 3630,
      "',": 3631,
      "Ġpou": 3632,
      "To": 3633,
      "Ġtell": 3634,
      "Ġanim": 3635,
      "Ġkit": 3636,
      "Ġcop": 3637,
      "idade": 3638,
      "ova": 3639,
      "ization": 3640,
      "Ä±n": 3641,
      "ĠYork": 3642,
      "On": 3643,
      "æĺ¯": 3644,
      "Ġuit": 3645,
      "Ġtoday": 3646,
      "Ð°ÑĪ": 3647,
      "áĢ»": 3648,
      "arr": 3649,
      "face": 3650,
      "urt": 3651,
      "off": 3652,
      "Ġhold": 3653,
      "Ġkell": 3654,
      "Ġreason": 3655,
      "Ġcrit": 3656,
      "Ð°Ð±": 3657,
      "Ġtoget": 3658,
      "ises": 3659,
      "usi": 3660,
      "Ġalt": 3661,
      "adas": 3662,
      "Ġbez": 3663,
      "sten": 3664,
      "Ġot": 3665,
      "àºĩ": 3666,
      "amas": 3667,
      "ĠGen": 3668,
      "Ġtogether": 3669,
      "Ġvy": 3670,
      "Òĵ": 3671,
      "Ġleast": 3672,
      "Ġdit": 3673,
      "ÖĦ": 3674,
      "Ġalong": 3675,
      "ĠAmerican": 3676,
      "Ġfield": 3677,
      "atal": 3678,
      "Ġeste": 3679,
      "Ġagus": 3680,
      "Å¾e": 3681,
      "ØªÙħ": 3682,
      "âĢĿ,": 3683,
      "ĠÐļ": 3684,
      "Ġtek": 3685,
      "ĠEm": 3686,
      "ĠÃ§": 3687,
      "Ġpel": 3688,
      "ãģ¦": 3689,
      "ĠÐŁ": 3690,
      "tek": 3691,
      "áĢ¸áĢ": 3692,
      "Ã¡ra": 3693,
      "urch": 3694,
      "Ġkal": 3695,
      "Ġclaim": 3696,
      "Ġauthor": 3697,
      "Ã§Ãµes": 3698,
      "Ġwhether": 3699,
      "Ûĩ": 3700,
      "ÙİÙĳ": 3701,
      "Ġbegin": 3702,
      "£à¸": 3703,
      "Ch": 3704,
      "åŃ": 3705,
      "Ġsoft": 3706,
      "obal": 3707,
      "łáĥ": 3708,
      "Ġfall": 3709,
      "âĢ¢": 3710,
      "opt": 3711,
      "ready": 3712,
      "à¤ª": 3713,
      "edd": 3714,
      "Ġcompet": 3715,
      "Ġrend": 3716,
      "Ġih": 3717,
      "ĠÐ¾Ð±": 3718,
      "Ã¡st": 3719,
      "my": 3720,
      "mission": 3721,
      "--------": 3722,
      "reen": 3723,
      "omet": 3724,
      "yle": 3725,
      "à¤µ": 3726,
      "hold": 3727,
      "van": 3728,
      "oja": 3729,
      "Ġstrateg": 3730,
      "æī": 3731,
      "ijas": 3732,
      "Ġinn": 3733,
      "ĠØ§ÙĦØ´": 3734,
      "Ġlarg": 3735,
      "Ġ?": 3736,
      "iding": 3737,
      "OS": 3738,
      "à¬¿à¬": 3739,
      "Ġtid": 3740,
      "ĠØ·": 3741,
      "Com": 3742,
      "ĠsiÄĻ": 3743,
      "ĠÎº": 3744,
      "ÐµÐ·": 3745,
      "Ġsta": 3746,
      "Ġnach": 3747,
      "Ġassoci": 3748,
      "amento": 3749,
      "Ġdiffic": 3750,
      "ols": 3751,
      "Ð°Ð¿": 3752,
      "Ġpolic": 3753,
      "Ġearly": 3754,
      "ÎŃ": 3755,
      "Ġdone": 3756,
      "ÙĪÙĤ": 3757,
      "Ģàº": 3758,
      "Ġnear": 3759,
      "Ð½Ñı": 3760,
      "áĢºáĢ¸áĢ": 3761,
      "Ġever": 3762,
      "Ġcreate": 3763,
      "Ġstra": 3764,
      "adh": 3765,
      "Ġrisk": 3766,
      "ĠHer": 3767,
      "áĢ°": 3768,
      "gt": 3769,
      "ez": 3770,
      "Ġbenef": 3771,
      "Ġhj": 3772,
      "Ġhor": 3773,
      "ĠØ¹ÙĨ": 3774,
      "utt": 3775,
      "ÄįiÅ³": 3776,
      "though": 3777,
      "Ã¼k": 3778,
      "ÑĢÑĥ": 3779,
      "ET": 3780,
      "à´¾": 3781,
      "How": 3782,
      "ÐµÐ²": 3783,
      "Ġenough": 3784,
      "Ġga": 3785,
      "bi": 3786,
      "Ġhouse": 3787,
      "Ġmulti": 3788,
      "àµģà´": 3789,
      "ĠØ§ÙĦÙģ": 3790,
      "Ġparticip": 3791,
      "ĠÐĲ": 3792,
      "Ġtotal": 3793,
      "áŁĭ": 3794,
      "ired": 3795,
      "inter": 3796,
      "ÃŃs": 3797,
      "Ġdarb": 3798,
      "Ġcontinu": 3799,
      "àŃįà¬": 3800,
      "ä¼": 3801,
      "ĠØ§ÙĨ": 3802,
      "Ġhier": 3803,
      "ãĤĭ": 3804,
      "ĠtÃ¶": 3805,
      "Ġdz": 3806,
      "Ä«g": 3807,
      "ystem": 3808,
      "mod": 3809,
      "over": 3810,
      "Ġrespect": 3811,
      "à¸Ńà¸": 3812,
      "col": 3813,
      "ĠkÄģ": 3814,
      "Ġbij": 3815,
      "Ĥà°": 3816,
      "áĢ¾": 3817,
      "Ġthing": 3818,
      "Ġtry": 3819,
      "ÑĢÐ°": 3820,
      "side": 3821,
      "....": 3822,
      "ĠÐľ": 3823,
      "Ġstep": 3824,
      "Ġtom": 3825,
      "ublic": 3826,
      "serv": 3827,
      "Ġauch": 3828,
      "Ã³s": 3829,
      "ĠÑĦ": 3830,
      "Ġstruct": 3831,
      "Ġska": 3832,
      "ules": 3833,
      "à¬¾à¬": 3834,
      "Ġminutes": 3835,
      "àº±": 3836,
      "ÑĥÑĤ": 3837,
      "Ġei": 3838,
      "enti": 3839,
      "ham": 3840,
      "Ġseason": 3841,
      "Ġkaip": 3842,
      "lement": 3843,
      "ĠØ£ÙĪ": 3844,
      "Ġlive": 3845,
      "rodu": 3846,
      "Ġrelations": 3847,
      "Ã¡ll": 3848,
      "kin": 3849,
      "Ġresults": 3850,
      "Ġcontact": 3851,
      "Õ¥ÖĢ": 3852,
      "ivo": 3853,
      "ÙĪØ§": 3854,
      "Ġneeds": 3855,
      "Ġaj": 3856,
      "ball": 3857,
      "wards": 3858,
      "Ġabove": 3859,
      "Ġgali": 3860,
      "Ġnes": 3861,
      "aten": 3862,
      "ÄĹt": 3863,
      "ĠÃ¡ll": 3864,
      "Ïī": 3865,
      "Ġsil": 3866,
      "\":\"": 3867,
      "kr": 3868,
      "Ġtax": 3869,
      "ĠEd": 3870,
      "ving": 3871,
      "Ã¤ll": 3872,
      "Ġvia": 3873,
      "Ġned": 3874,
      "ĠelÅĳ": 3875,
      "Con": 3876,
      "à¦¨": 3877,
      "Ġsugg": 3878,
      "There": 3879,
      "Ġfuture": 3880,
      "áĢĬ": 3881,
      "ĠDr": 3882,
      "Ã¤tt": 3883,
      "Ġtou": 3884,
      "×Ķ": 3885,
      "ÐµÐ³": 3886,
      "Ġcame": 3887,
      "imÄħ": 3888,
      "play": 3889,
      "Ġdiscuss": 3890,
      "Ġtot": 3891,
      "Ġfocus": 3892,
      "uly": 3893,
      "ĠSie": 3894,
      "bor": 3895,
      "Ġbase": 3896,
      "Ã¡d": 3897,
      "ãģŁ": 3898,
      "Ġcover": 3899,
      "ĠCal": 3900,
      "enÃŃ": 3901,
      "Õ¡Õ¯": 3902,
      "ario": 3903,
      "och": 3904,
      "Ġhistor": 3905,
      "Ġbill": 3906,
      "Ġporno": 3907,
      "Ġposition": 3908,
      "Ġstory": 3909,
      "Ġadmin": 3910,
      "Ã¶v": 3911,
      "ä¿": 3912,
      "Ġalg": 3913,
      "Ġep": 3914,
      "à¼ĭà½¢": 3915,
      "Ġself": 3916,
      "okat": 3917,
      "rd": 3918,
      "urity": 3919,
      "pression": 3920,
      "part": 3921,
      "eket": 3922,
      "Ġenergy": 3923,
      "Ġalready": 3924,
      "Ã¥n": 3925,
      "nost": 3926,
      "ìĦ": 3927,
      "áĢħ": 3928,
      "àºĶ": 3929,
      "uz": 3930,
      "zÃ©s": 3931,
      "Ġfail": 3932,
      "Ġà¤¬": 3933,
      "Ġcity": 3934,
      "æĿ": 3935,
      "Ġmusic": 3936,
      "yti": 3937,
      "ç»": 3938,
      "Ġtext": 3939,
      "ĠØ§ÙĦØ¯": 3940,
      "à³Ĩ": 3941,
      "ìĹĲ": 3942,
      "Ġà¤ħ": 3943,
      "Ġai": 3944,
      "Ġaug": 3945,
      "Ġstrong": 3946,
      "bar": 3947,
      "Ġhistory": 3948,
      "å¥": 3949,
      "Ö·": 3950,
      "Ġmess": 3951,
      "oved": 3952,
      "Ġarg": 3953,
      "àº°": 3954,
      "Ġwur": 3955,
      "ĠØ§ÙĦØ¥": 3956,
      "Ġestab": 3957,
      "Ġpak": 3958,
      "Ġvel": 3959,
      "Ð»Ð¸": 3960,
      "\",\"": 3961,
      "ÑĹ": 3962,
      "ê°": 3963,
      "Ã¶l": 3964,
      "Ġcolle": 3965,
      "Ġworks": 3966,
      "ests": 3967,
      "Ġlig": 3968,
      "ĠÙħØ§": 3969,
      "Î±Î¹": 3970,
      "ĠRep": 3971,
      "Ġtemper": 3972,
      "pat": 3973,
      "Ã¡sa": 3974,
      "Å¥": 3975,
      "Ã»": 3976,
      "iska": 3977,
      "osed": 3978,
      "Ġmakes": 3979,
      "ĠAng": 3980,
      "Ġtw": 3981,
      "è¯": 3982,
      "ĠTra": 3983,
      "inÄĹ": 3984,
      "ĠMy": 3985,
      "Ġsobre": 3986,
      "Ġmedic": 3987,
      "ĠEst": 3988,
      "sm": 3989,
      "Ġgru": 3990,
      "ÙĦÙĩ": 3991,
      "ĠCor": 3992,
      "Ġvor": 3993,
      "imm": 3994,
      "augh": 3995,
      "Ġben": 3996,
      "Ø±Ø©": 3997,
      "ounds": 3998,
      "anta": 3999,
      "aster": 4000,
      "::": 4001,
      "iniÅ³": 4002,
      "Ġprot": 4003,
      "ĠÐĳ": 4004,
      "ification": 4005,
      "Ġsind": 4006,
      "Ä£": 4007,
      "ively": 4008,
      "Ġ->": 4009,
      "ìŀ": 4010,
      "text": 4011,
      "illa": 4012,
      "Ġnap": 4013,
      "abb": 4014,
      "oli": 4015,
      "ãĤĴ": 4016,
      "Ġren": 4017,
      "Ġkok": 4018,
      "indows": 4019,
      "Ġweb": 4020,
      "Ġkey": 4021,
      "Ġmembers": 4022,
      "ãģ¯": 4023,
      "ìł": 4024,
      "Ġbud": 4025,
      "ej": 4026,
      "Ġyoung": 4027,
      "Ġtod": 4028,
      "Ġatta": 4029,
      "ĠWorld": 4030,
      "ÛĨ": 4031,
      "Ġfive": 4032,
      "azione": 4033,
      "Ġvous": 4034,
      "Ġled": 4035,
      "åľ¨": 4036,
      "à´¾à´": 4037,
      "cija": 4038,
      "):": 4039,
      "Ġdetail": 4040,
      "Ex": 4041,
      "Ã©se": 4042,
      "Ø¨ÙĬ": 4043,
      "Ġviet": 4044,
      "Ġcit": 4045,
      "Ġats": 4046,
      "Ġgi": 4047,
      "à©Ģ": 4048,
      "osa": 4049,
      "Äĵm": 4050,
      "Ġenter": 4051,
      "Ġamong": 4052,
      "book": 4053,
      "ĠStates": 4054,
      "Ġdefin": 4055,
      "olg": 4056,
      "aux": 4057,
      "Ġbat": 4058,
      "Ġgod": 4059,
      "ĠÃ¸": 4060,
      "iza": 4061,
      "ĠWith": 4062,
      "iff": 4063,
      "Ġig": 4064,
      "Ġoder": 4065,
      "Âł": 4066,
      "à¼ĭà½Ķ": 4067,
      "iais": 4068,
      "Ä·": 4069,
      "Ġenvironment": 4070,
      "Ġamb": 4071,
      "Õµ": 4072,
      "load": 4073,
      "Ġalm": 4074,
      "ãģª": 4075,
      "pan": 4076,
      "à·ı": 4077,
      "ÙħÙĨ": 4078,
      "ĠpÄģr": 4079,
      "Ã¬": 4080,
      "fin": 4081,
      "ĠDen": 4082,
      "ibility": 4083,
      "Ġsingle": 4084,
      "èĢ": 4085,
      "Ġcause": 4086,
      "ĠØº": 4087,
      "Å¡ÃŃ": 4088,
      "ĥ½": 4089,
      "ension": 4090,
      "Ġjud": 4091,
      "umb": 4092,
      "hing": 4093,
      "à®¾": 4094,
      "Ġàº": 4095,
      "è¡": 4096,
      "yg": 4097,
      "Ġaddress": 4098,
      "Ġbad": 4099,
      "Ġnatural": 4100,
      "ĠBo": 4101,
      "EL": 4102,
      "Ġvit": 4103,
      "ober": 4104,
      "Ġpun": 4105,
      "essa": 4106,
      "ĠÅ¾e": 4107,
      "Ġcharacter": 4108,
      "rid": 4109,
      "Ġreview": 4110,
      "Ġgan": 4111,
      "ÃŃr": 4112,
      "Ġao": 4113,
      "Ð¾Ð¿": 4114,
      "¯à¦": 4115,
      "ĠVal": 4116,
      "ìĿĦ": 4117,
      "Ġface": 4118,
      "lag": 4119,
      "ĠWill": 4120,
      "Ġindic": 4121,
      "Ġstar": 4122,
      "Õ¡Õµ": 4123,
      "gram": 4124,
      "Ġera": 4125,
      "Ġmiss": 4126,
      "uta": 4127,
      "emp": 4128,
      "ĠNational": 4129,
      "gar": 4130,
      "Ġord": 4131,
      "ĠÃ¼ber": 4132,
      "àŃĩ": 4133,
      "Ġmga": 4134,
      "Ġ×Ķ": 4135,
      "ØŃØ¯": 4136,
      "Ã³k": 4137,
      "ĠÃ¥r": 4138,
      "son": 4139,
      "cience": 4140,
      "×ĺ": 4141,
      "iger": 4142,
      "stru": 4143,
      "ãģĮ": 4144,
      "ĠÎµ": 4145,
      "Ġaccount": 4146,
      "Ġcommunity": 4147,
      "inÄĹs": 4148,
      "ĠOne": 4149,
      "ãģĻ": 4150,
      "pal": 4151,
      "å·": 4152,
      "Ġpil": 4153,
      "ĠBar": 4154,
      "atic": 4155,
      "Ġproducts": 4156,
      "Ġáŀ": 4157,
      "Ġdifficult": 4158,
      "Ħà¸": 4159,
      "Ġdien": 4160,
      "ĠÙĥØ§ÙĨ": 4161,
      "Ġcheck": 4162,
      "ris": 4163,
      "Ġsimilar": 4164,
      "ĠnÃ©": 4165,
      "Ä«dz": 4166,
      "Ġtook": 4167,
      "Ġsimple": 4168,
      "Ġonce": 4169,
      "à«Ģ": 4170,
      "Ġ;": 4171,
      "Ġsavo": 4172,
      "Ã¡ri": 4173,
      "kar": 4174,
      "mar": 4175,
      "éĢ": 4176,
      "ration": 4177,
      "ĠPre": 4178,
      "Ġgir": 4179,
      "ention": 4180,
      "ĠPres": 4181,
      "Ġbor": 4182,
      "Ġskal": 4183,
      "Ġheart": 4184,
      "éĩ": 4185,
      "ĠØ°": 4186,
      "ei": 4187,
      "Ð¸Ð´": 4188,
      "EC": 4189,
      "Ġfurther": 4190,
      "ensive": 4191,
      "Ã§a": 4192,
      "Ġwomen": 4193,
      "isten": 4194,
      "Ġinstall": 4195,
      "ĠWest": 4196,
      "Ġthird": 4197,
      "iny": 4198,
      "Ġaux": 4199,
      "rs": 4200,
      "ĠÂ»": 4201,
      "Î³": 4202,
      "ĠÕ°": 4203,
      "Ġkter": 4204,
      "ĠvÃ¡l": 4205,
      "ÙĤØ©": 4206,
      "ĠAust": 4207,
      "Ø§Ùĭ": 4208,
      "ĠMon": 4209,
      "'ll": 4210,
      "Ġmach": 4211,
      "esch": 4212,
      "ĠEs": 4213,
      "Ġ%": 4214,
      "lan": 4215,
      "íķĺ": 4216,
      "ĠÐ¢": 4217,
      "Ġpain": 4218,
      "Ġtalk": 4219,
      "áĥķ": 4220,
      "Ġspace": 4221,
      "Ġcourt": 4222,
      "Ġage": 4223,
      "Ġdog": 4224,
      "Ġ@": 4225,
      "Ġopportun": 4226,
      "ery": 4227,
      "oper": 4228,
      "Ø¤": 4229,
      "Î®": 4230,
      "à«į": 4231,
      "áŀ·": 4232,
      "Ġnormal": 4233,
      "iec": 4234,
      "Ø§Ø´": 4235,
      "à«įàª": 4236,
      "OM": 4237,
      "ĠÎ¼": 4238,
      "Ġproced": 4239,
      "vÄĵ": 4240,
      "ÙĬØ³": 4241,
      "ador": 4242,
      "Ã¥g": 4243,
      "à©ĩ": 4244,
      "Ġlooking": 4245,
      "ÒĽ": 4246,
      "Ġliv": 4247,
      "ä¸į": 4248,
      "omas": 4249,
      "anger": 4250,
      "Å¡anas": 4251,
      "wi": 4252,
      "kn": 4253,
      "Ġeta": 4254,
      "à¼ĭà½ĺ": 4255,
      "Ġjeg": 4256,
      "Ġnaud": 4257,
      "Ġthought": 4258,
      "ligt": 4259,
      "à»Ģàº": 4260,
      "å¸": 4261,
      "ĠMc": 4262,
      "Ø±Ùĥ": 4263,
      "Ġtan": 4264,
      "atures": 4265,
      "Ġpet": 4266,
      "Ġrequired": 4267,
      "Ġsua": 4268,
      "è¦": 4269,
      "Ġdise": 4270,
      "ÑįÑį": 4271,
      "Ġquestions": 4272,
      "Ġwebsite": 4273,
      "Ġinj": 4274,
      "à§ģ": 4275,
      "Ġplat": 4276,
      "ÙĪØ³": 4277,
      "Ar": 4278,
      "inis": 4279,
      "Ġconsum": 4280,
      "à¤¦": 4281,
      "Ġetc": 4282,
      "amos": 4283,
      "erek": 4284,
      "bol": 4285,
      "ĠÐ¿Ð¾": 4286,
      "àºŃ": 4287,
      "Ġvot": 4288,
      "åĴ": 4289,
      "à¶º": 4290,
      "Ġdoing": 4291,
      "oon": 4292,
      "ĠSer": 4293,
      "ought": 4294,
      "adi": 4295,
      "rar": 4296,
      "Ã¶s": 4297,
      "When": 4298,
      "eks": 4299,
      "Ġelse": 4300,
      "ĠSec": 4301,
      "ĠArt": 4302,
      "Ġavo": 4303,
      "hand": 4304,
      "Ġamount": 4305,
      "ĠØ²": 4306,
      "Ġcontain": 4307,
      "Ġeither": 4308,
      "Ø§Ùĩ": 4309,
      "ĠNov": 4310,
      "Ø±Ø¯": 4311,
      "Ġlangu": 4312,
      "esti": 4313,
      "ctions": 4314,
      "à¼ĭà½¦à¾": 4315,
      "Ġpred": 4316,
      "Ġmonths": 4317,
      "ĠFran": 4318,
      "Ġdaug": 4319,
      "elling": 4320,
      "aling": 4321,
      "And": 4322,
      "****": 4323,
      "Ã¸d": 4324,
      "Ġcompan": 4325,
      "alse": 4326,
      "ÙĬØª": 4327,
      "Ġdidn": 4328,
      "Ġtrue": 4329,
      "ĠÅŁ": 4330,
      "à½ł": 4331,
      "áĢ¬áĢ¸áĢ": 4332,
      "Ġà¤Ĩ": 4333,
      "idos": 4334,
      "raft": 4335,
      "Ġpoints": 4336,
      "à¼ĭà½£": 4337,
      "Ġshall": 4338,
      "åº": 4339,
      "Ġnight": 4340,
      "hoz": 4341,
      "à®¾à®": 4342,
      "action": 4343,
      "åĩ": 4344,
      "eme": 4345,
      "aba": 4346,
      "artment": 4347,
      "Ġcontent": 4348,
      "jes": 4349,
      "ipp": 4350,
      "ì§": 4351,
      "ĠState": 4352,
      "Ġmut": 4353,
      "Ø§ÛĮ": 4354,
      "Ġdir": 4355,
      "Ġà¤¨": 4356,
      "Ġcred": 4357,
      "Ġproblems": 4358,
      "ega": 4359,
      "Ġsignificant": 4360,
      "oph": 4361,
      "ĠØ§ÙĦÙĥ": 4362,
      "oi": 4363,
      "Ø§Øµ": 4364,
      "Ġhowever": 4365,
      "ĠÐ·Ð°": 4366,
      "joy": 4367,
      "Ġlehet": 4368,
      "Ġrepl": 4369,
      "asa": 4370,
      "Ġsix": 4371,
      "ÑĸÐ´": 4372,
      "Ġbelow": 4373,
      "Ġhalf": 4374,
      "ÑĤÐ°": 4375,
      "itÃł": 4376,
      "cis": 4377,
      "Õ¿": 4378,
      "pend": 4379,
      "Ġcoll": 4380,
      "ysis": 4381,
      "Ð°Ð»ÑĮ": 4382,
      "Ġpage": 4383,
      "ĠZe": 4384,
      "Ġwords": 4385,
      "hib": 4386,
      "Ġacross": 4387,
      "ÐºÐ°": 4388,
      "iki": 4389,
      "Ġkt": 4390,
      "ledge": 4391,
      "ince": 4392,
      "ÙĪØ¨": 4393,
      "Ġrecomm": 4394,
      "ellen": 4395,
      "ĩà¸": 4396,
      "uh": 4397,
      "ĠáĥĽ": 4398,
      "Ġnek": 4399,
      "uto": 4400,
      "åĨ": 4401,
      "Ġmel": 4402,
      "Ġfile": 4403,
      "áŀĽ": 4404,
      "ĠĊ": 4405,
      "Ġsor": 4406,
      "rast": 4407,
      "Ġvisit": 4408,
      "à¼į": 4409,
      "à¥Ī": 4410,
      "ĠBro": 4411,
      "Ġefter": 4412,
      "()": 4413,
      "Ġnel": 4414,
      "Ð½Ðµ": 4415,
      "Ġsubject": 4416,
      "onse": 4417,
      "Ġlink": 4418,
      "ey": 4419,
      "Ġà·": 4420,
      "Ġfi": 4421,
      "ĠAc": 4422,
      "Ġay": 4423,
      "Ġmob": 4424,
      "ë¡": 4425,
      "entes": 4426,
      "Ġbank": 4427,
      "oint": 4428,
      "ikk": 4429,
      "Ġtart": 4430,
      "UR": 4431,
      "onn": 4432,
      "Ġcomes": 4433,
      "Ġoil": 4434,
      "imi": 4435,
      "istic": 4436,
      "à½ĸ": 4437,
      "Ġcompr": 4438,
      "Ġwent": 4439,
      "ply": 4440,
      "Ġcorre": 4441,
      "alo": 4442,
      "Ġtag": 4443,
      "ioni": 4444,
      "ĠAug": 4445,
      "onom": 4446,
      "itted": 4447,
      "hol": 4448,
      "Ïĩ": 4449,
      "Ġdass": 4450,
      "Ġidea": 4451,
      "Õ¸ÖĤÕ´": 4452,
      "Ġvarious": 4453,
      "pecially": 4454,
      "iser": 4455,
      "asing": 4456,
      "Ġhun": 4457,
      "ening": 4458,
      "Ġven": 4459,
      "ÐºÐ¸": 4460,
      "Ġwird": 4461,
      "abor": 4462,
      "ST": 4463,
      "Ġale": 4464,
      "Ġaction": 4465,
      "áĢļ": 4466,
      "ogen": 4467,
      "ened": 4468,
      "vat": 4469,
      "Ġtreatment": 4470,
      "Ġyet": 4471,
      "ĠServ": 4472,
      "Ġcollect": 4473,
      "áĢºáĤ": 4474,
      "eds": 4475,
      "imate": 4476,
      "áŀı": 4477,
      "Ġdating": 4478,
      "ĠCont": 4479,
      "Ġhely": 4480,
      "à¨¿": 4481,
      "uli": 4482,
      "isation": 4483,
      "fort": 4484,
      "gel": 4485,
      "irk": 4486,
      "Ġhol": 4487,
      "ford": 4488,
      "Ġpropos": 4489,
      "ories": 4490,
      "Ã¶tt": 4491,
      "Ġà¤ľ": 4492,
      "wor": 4493,
      "fÃ¶r": 4494,
      "Ġchall": 4495,
      "iction": 4496,
      "Ġtip": 4497,
      "empl": 4498,
      "ĠÑĸ": 4499,
      "Ã©ben": 4500,
      "Ġfem": 4501,
      "gl": 4502,
      "Ð°Ð¶": 4503,
      "cil": 4504,
      "avy": 4505,
      "IL": 4506,
      "Äģl": 4507,
      "Ġyang": 4508,
      "adem": 4509,
      "ĠØ§ÙĦØ±": 4510,
      "Æ°á»": 4511,
      "Ġkv": 4512,
      "ungs": 4513,
      "Ġdocument": 4514,
      "AD": 4515,
      "ĠØ¨Ùĩ": 4516,
      "stead": 4517,
      "Ġquality": 4518,
      "hem": 4519,
      "ype": 4520,
      "Ġseen": 4521,
      "Ġple": 4522,
      "Ġnagy": 4523,
      "Ġalla": 4524,
      "Ø¹Ø©": 4525,
      "fil": 4526,
      "Ġloss": 4527,
      "FF": 4528,
      "ĠÃª": 4529,
      "Ġactually": 4530,
      "ĠPart": 4531,
      "à¤Ĺ": 4532,
      "Ġincrease": 4533,
      "Ġkat": 4534,
      "ÅĻÃŃ": 4535,
      "å¼": 4536,
      "Ġquick": 4537,
      "ĠĠĠĠĠĠĠĠĠĠĠĠĠĠĠ": 4538,
      "ĠDav": 4539,
      "Ġà¤µ": 4540,
      "ĠCity": 4541,
      "ech": 4542,
      "bre": 4543,
      "ares": 4544,
      "ĠHis": 4545,
      "medi": 4546,
      "Ġbring": 4547,
      "ÙħØ±": 4548,
      "AP": 4549,
      "ĠÚĨ": 4550,
      "Ð½Ñĸ": 4551,
      "ological": 4552,
      "eni": 4553,
      "Ä§": 4554,
      "Ġlikely": 4555,
      "Ġdate": 4556,
      "ÅĦ": 4557,
      "ĠØ§ÙĦØ°": 4558,
      "Õ¡ÖĢ": 4559,
      "aa": 4560,
      "Ġgrand": 4561,
      "ĠszÃ¡m": 4562,
      "à¤°à¥įà¤": 4563,
      "à¤¯": 4564,
      "Ġperformance": 4565,
      "www": 4566,
      "Ġtold": 4567,
      "asta": 4568,
      "pril": 4569,
      "Ġdoesn": 4570,
      "Ġjel": 4571,
      "ĠBer": 4572,
      "à¼ĭà½ł": 4573,
      "tra": 4574,
      "acc": 4575,
      "cont": 4576,
      "Ġ>": 4577,
      "bet": 4578,
      "ismo": 4579,
      "unn": 4580,
      "ĠDep": 4581,
      "å¤§": 4582,
      "sÃ¥": 4583,
      "ìĿĺ": 4584,
      "Ġ_": 4585,
      "ader": 4586,
      "Ġtyp": 4587,
      "Ġvoc": 4588,
      "Ġhours": 4589,
      "Ġeiner": 4590,
      "è®": 4591,
      "Ġ//": 4592,
      "vention": 4593,
      "uff": 4594,
      "ĠmÃ©": 4595,
      "ĠØ§ÙĦØ®": 4596,
      "Äįiau": 4597,
      "Ġbiz": 4598,
      "Ġrole": 4599,
      "====": 4600,
      "Ġtaken": 4601,
      "¯à¦¼": 4602,
      "Ġoriginal": 4603,
      "Ð°ÑĤÑĮ": 4604,
      "Ġconditions": 4605,
      "Ð¿ÑĢ": 4606,
      "hn": 4607,
      "osi": 4608,
      "iri": 4609,
      "Ġinflu": 4610,
      "isen": 4611,
      "Ġmint": 4612,
      "ĠDec": 4613,
      "nder": 4614,
      "Ġtud": 4615,
      "Ġaw": 4616,
      "del": 4617,
      "Ġìŀ": 4618,
      "ania": 4619,
      "áĥ£áĥ": 4620,
      "ÙĦØ©": 4621,
      "At": 4622,
      "Ġshare": 4623,
      "Ġban": 4624,
      "ĠMic": 4625,
      "Ġstarted": 4626,
      "oa": 4627,
      "Õ«Õ¶": 4628,
      "ÙģÙĬ": 4629,
      "ĠÐ¸Ð·": 4630,
      "Ġroom": 4631,
      "Ġrelationship": 4632,
      "omis": 4633,
      "ĠDes": 4634,
      "zu": 4635,
      "ĠAct": 4636,
      "Ġprovided": 4637,
      "ĠarÄ«": 4638,
      "Ġ)": 4639,
      "Ġsett": 4640,
      "Ã©ri": 4641,
      "Az": 4642,
      "Ġareas": 4643,
      "Ġpopular": 4644,
      "El": 4645,
      "ĠLes": 4646,
      "Ã©ho": 4647,
      "ĠBrit": 4648,
      "áĪĿ": 4649,
      "Ġwhole": 4650,
      "Ġtut": 4651,
      "Ġworden": 4652,
      "Ġprotect": 4653,
      "Ġveik": 4654,
      "Ð¸ÑģÑĤ": 4655,
      "Ġupon": 4656,
      "nis": 4657,
      "ĊĊĊ": 4658,
      "Ġflo": 4659,
      "Ġdiagn": 4660,
      "Ġproduction": 4661,
      "à¥Ĥ": 4662,
      "ãģ¾": 4663,
      "ØªÙĩ": 4664,
      "isc": 4665,
      "Ġsud": 4666,
      "Ġstop": 4667,
      "oe": 4668,
      "iert": 4669,
      "acy": 4670,
      "Ð¾Ð»ÑĮ": 4671,
      "umi": 4672,
      "Ġmok": 4673,
      "ĠPe": 4674,
      "inio": 4675,
      "back": 4676,
      "Ġprepar": 4677,
      "Ġcontract": 4678,
      "Ġtamb": 4679,
      "Ġbur": 4680,
      "âĢĻre": 4681,
      "aly": 4682,
      "ĠØ§ÙĦØªÙĬ": 4683,
      "Ġfavor": 4684,
      "uot": 4685,
      "à±ģà°": 4686,
      "ĠCour": 4687,
      "Ġkam": 4688,
      "fi": 4689,
      "Ġnuo": 4690,
      "ivil": 4691,
      "à¶»": 4692,
      "Ġgj": 4693,
      "ĠDer": 4694,
      "Ġà¤¤": 4695,
      "plement": 4696,
      "ĠÙĦØ§": 4697,
      "anti": 4698,
      "rab": 4699,
      "OT": 4700,
      "à¤¾à¤¨": 4701,
      "Ã¡b": 4702,
      "Ġtap": 4703,
      "Ġproperty": 4704,
      "alla": 4705,
      "Ġcolor": 4706,
      "áĢ±áĢ¬áĢ": 4707,
      "Ø§Ø®": 4708,
      "Ġeasy": 4709,
      "Ġimpact": 4710,
      "pi": 4711,
      "Ġaccording": 4712,
      "idh": 4713,
      "rig": 4714,
      "Ġaccept": 4715,
      "],": 4716,
      "lie": 4717,
      "Ġchanges": 4718,
      "pir": 4719,
      "Ġwel": 4720,
      "Äįi": 4721,
      "Ġrather": 4722,
      "à²°": 4723,
      "Ġroz": 4724,
      "Ġagre": 4725,
      "áĢĽ": 4726,
      "itter": 4727,
      "pet": 4728,
      "Ġmig": 4729,
      "Wh": 4730,
      "formation": 4731,
      "Ã¡lis": 4732,
      "Ġsle": 4733,
      "Ġnational": 4734,
      "Ġregard": 4735,
      "cel": 4736,
      "ÙĪÙĬ": 4737,
      "But": 4738,
      "uit": 4739,
      "Ġhi": 4740,
      "Ġdeath": 4741,
      "!!": 4742,
      "oni": 4743,
      "ads": 4744,
      "Ġextra": 4745,
      "Ġgel": 4746,
      "Ø§Ø·": 4747,
      "Ġcannot": 4748,
      "çĽ": 4749,
      "esz": 4750,
      "ĠJah": 4751,
      "Ġbuilding": 4752,
      "gal": 4753,
      "enter": 4754,
      "Ġsystems": 4755,
      "name": 4756,
      "Ġcam": 4757,
      "Ġses": 4758,
      "ĠÑĨ": 4759,
      "à¨°": 4760,
      "Ä«bu": 4761,
      "iej": 4762,
      "ĠÐĿ": 4763,
      "Ġkel": 4764,
      "Ġmedia": 4765,
      "Ġà¤¦": 4766,
      "empt": 4767,
      "edi": 4768,
      "Ġconcern": 4769,
      "Ġkil": 4770,
      "anga": 4771,
      "acht": 4772,
      "Ġminim": 4773,
      "ĠSan": 4774,
      "lam": 4775,
      "ĠHar": 4776,
      "new": 4777,
      "des": 4778,
      "Ġbab": 4779,
      "Ġà¸": 4780,
      "ION": 4781,
      "'est": 4782,
      "ators": 4783,
      "Ġissues": 4784,
      "Ġsearch": 4785,
      "So": 4786,
      "áŁĨ": 4787,
      "inger": 4788,
      "Ġenjoy": 4789,
      "____": 4790,
      "Ġrange": 4791,
      "kst": 4792,
      "Ġtaking": 4793,
      "maz": 4794,
      "å¯": 4795,
      "onta": 4796,
      "ä¸Ń": 4797,
      "Ġcoun": 4798,
      "Ġcook": 4799,
      "ĠStud": 4800,
      "Ġseries": 4801,
      "Ò³": 4802,
      "Ġanti": 4803,
      "aya": 4804,
      "Ġnature": 4805,
      "Ġapproach": 4806,
      "itch": 4807,
      "mis": 4808,
      "Ġmove": 4809,
      "Ġtradition": 4810,
      "icha": 4811,
      "ĠSm": 4812,
      "Ġsoftware": 4813,
      "áĪŃ": 4814,
      "Ġunivers": 4815,
      "ningen": 4816,
      "Ġfast": 4817,
      "ĠÚ¯": 4818,
      "ĠvÃ¦re": 4819,
      "Ġcard": 4820,
      "Ġbelieve": 4821,
      "ĠMus": 4822,
      "Ð°ÑģÑĤ": 4823,
      "log": 4824,
      "Ġtiek": 4825,
      "cÃŃ": 4826,
      "Ġparte": 4827,
      "éģ": 4828,
      "Ã©re": 4829,
      "Õ¥Õ¬": 4830,
      "add": 4831,
      "Ġreik": 4832,
      "ÓĻÑĢ": 4833,
      "uer": 4834,
      "Ã¶g": 4835,
      "äºĨ": 4836,
      "apan": 4837,
      "ĠAfter": 4838,
      "aciÃ³n": 4839,
      "ax": 4840,
      "ĠWar": 4841,
      "aker": 4842,
      "Ġgetting": 4843,
      "ĠMark": 4844,
      "áŁĴáŀļáŀ": 4845,
      "ĠSouth": 4846,
      "ÙĨÙĬ": 4847,
      "cijos": 4848,
      "Ġnas": 4849,
      "Äĵc": 4850,
      "á»ĭ": 4851,
      "ÐµÐ»ÑĮ": 4852,
      "Ġlegal": 4853,
      "ĠvÃ¤": 4854,
      "ĠfrÃ¥n": 4855,
      "chan": 4856,
      "raz": 4857,
      "Ġmanagement": 4858,
      "æĪĳ": 4859,
      "Ġmodern": 4860,
      "ydd": 4861,
      "ĠìĿ": 4862,
      "fully": 4863,
      "áŁģ": 4864,
      "ĠAg": 4865,
      "Ġjs": 4866,
      "Ġobserv": 4867,
      "selves": 4868,
      "ĠRob": 4869,
      "Ġtraining": 4870,
      "Ä«j": 4871,
      "ĠGl": 4872,
      "Ġsul": 4873,
      "Ġsource": 4874,
      "Ð¸Ð¹Ð½": 4875,
      "ibil": 4876,
      "avo": 4877,
      "ĠØ§ÙĦØµ": 4878,
      "Ġsepar": 4879,
      "Ġsomeone": 4880,
      "Ġprevious": 4881,
      "omi": 4882,
      "ÒĻ": 4883,
      "Ġhigher": 4884,
      "Å¡i": 4885,
      "Ġwalk": 4886,
      "Ġsize": 4887,
      "Ġrate": 4888,
      "ĠĠĠĠĠĠĠĠĠ": 4889,
      "ĠPat": 4890,
      "Ġaltern": 4891,
      "Ġblood": 4892,
      "×ŀ": 4893,
      "ĠáĢ¡": 4894,
      "Ġtim": 4895,
      "Ġkommer": 4896,
      "utions": 4897,
      "à¸µ": 4898,
      "Ïį": 4899,
      "àª¨": 4900,
      "àºµ": 4901,
      "ĠOb": 4902,
      "Ġtv": 4903,
      "icas": 4904,
      "inÄģ": 4905,
      "Ġpros": 4906,
      "agen": 4907,
      "ables": 4908,
      "Ġphot": 4909,
      "yo": 4910,
      "auj": 4911,
      "Ġespecially": 4912,
      "ptember": 4913,
      "Ġseem": 4914,
      "áŀ»": 4915,
      "uth": 4916,
      "Ġpok": 4917,
      "ference": 4918,
      "ague": 4919,
      "ÈĻi": 4920,
      "rod": 4921,
      "imento": 4922,
      "cription": 4923,
      "cijas": 4924,
      "ĠØ§Ø³Øª": 4925,
      "Ġcode": 4926,
      "ĠÛĮ": 4927,
      "Ã¤Ã¤n": 4928,
      "Ã¡nak": 4929,
      "raw": 4930,
      "aha": 4931,
      "ĠjÅ«s": 4932,
      "ĠogsÃ¥": 4933,
      "à²¦": 4934,
      "uments": 4935,
      "Ġapplication": 4936,
      "atie": 4937,
      "Ġnut": 4938,
      "Ã¶rt": 4939,
      "Ġlin": 4940,
      "Ġkol": 4941,
      "Ġfire": 4942,
      "Ġsuggest": 4943,
      "à·Ģ": 4944,
      "ĠBy": 4945,
      "Ġprior": 4946,
      "Å£": 4947,
      "jÃ¡k": 4948,
      "fol": 4949,
      "Ġbak": 4950,
      "Ġintrodu": 4951,
      "Ã¶t": 4952,
      "plic": 4953,
      "mu": 4954,
      "Ä«v": 4955,
      "inary": 4956,
      "Ġspr": 4957,
      "yv": 4958,
      "Ġarch": 4959,
      "Ġterms": 4960,
      "isch": 4961,
      "Ġentire": 4962,
      "Ġplant": 4963,
      "Ġways": 4964,
      "Ġful": 4965,
      "uni": 4966,
      "Ġregul": 4967,
      "ĠfÃ¸r": 4968,
      "cion": 4969,
      "Ġpow": 4970,
      "'un": 4971,
      "Ġdurch": 4972,
      "Ġviol": 4973,
      "Ġnak": 4974,
      "Ġcases": 4975,
      "cript": 4976,
      "Ġdecl": 4977,
      "ĠNot": 4978,
      "à¶Ń": 4979,
      "icos": 4980,
      "iable": 4981,
      "year": 4982,
      "Ġheld": 4983,
      "ĠMen": 4984,
      "×ł": 4985,
      "Ġarticle": 4986,
      "ĠChar": 4987,
      "áĢľ": 4988,
      "Ġversion": 4989,
      "Ã¤ng": 4990,
      "ored": 4991,
      "Ġpath": 4992,
      "ÎµÎ¹": 4993,
      "esse": 4994,
      "æķ": 4995,
      "Ġbis": 4996,
      "ãĥ¼": 4997,
      "Ġcompanies": 4998,
      "Ġintegr": 4999,
      "iku": 5000,
      "æŃ": 5001,
      "ask": 5002,
      "ÙħØ©": 5003,
      "ĠÃī": 5004,
      "Ġdecision": 5005,
      "ÑĶ": 5006,
      "ĠWeb": 5007,
      "Ø±Ùģ": 5008,
      "ube": 5009,
      "Ġlower": 5010,
      "Ġbol": 5011,
      "iento": 5012,
      "ĠAnt": 5013,
      "ÑĭÑĢ": 5014,
      "ikus": 5015,
      "asti": 5016,
      "Ġà¤°": 5017,
      "Ġmic": 5018,
      "esk": 5019,
      "Ġstandard": 5020,
      "ĠDu": 5021,
      "Ġvill": 5022,
      "Ġclose": 5023,
      "Ġassist": 5024,
      "ĠsÄħ": 5025,
      "ÑĥÐ½": 5026,
      "Ġsau": 5027,
      "iety": 5028,
      "Ġaver": 5029,
      "Ġpotential": 5030,
      "á»¥": 5031,
      "nings": 5032,
      "ĠHa": 5033,
      "Ġvad": 5034,
      "pose": 5035,
      "Ġsympt": 5036,
      "à½ĺ": 5037,
      "Ð°ÑĨ": 5038,
      "Ã©c": 5039,
      "Ġdrug": 5040,
      "Ġbag": 5041,
      "EM": 5042,
      "aszt": 5043,
      "áĥ¡": 5044,
      "Qu": 5045,
      "Ġ`": 5046,
      "Ġtechnology": 5047,
      "à¦¤": 5048,
      "kur": 5049,
      "ĠFin": 5050,
      "áº¿": 5051,
      "çī": 5052,
      "ijd": 5053,
      "Ġusually": 5054,
      "ĠCount": 5055,
      "ency": 5056,
      "cies": 5057,
      "Ġstru": 5058,
      "Ð°Ð½Ð´": 5059,
      "áĢ«": 5060,
      "ĠVi": 5061,
      "ĠvÃ½": 5062,
      "time": 5063,
      "eda": 5064,
      "Ġconstru": 5065,
      "Ġzo": 5066,
      "ÅĽci": 5067,
      "issa": 5068,
      "ĠDon": 5069,
      "Ġpack": 5070,
      "ìĭ": 5071,
      "Ġclean": 5072,
      "illed": 5073,
      "Ġfriends": 5074,
      "Ø§Ø¶": 5075,
      "Ã¢n": 5076,
      "Īëĭ¤": 5077,
      "ighe": 5078,
      "ÙĪØ¬": 5079,
      "ych": 5080,
      "Ġhit": 5081,
      "Ġnod": 5082,
      "Ġji": 5083,
      "reet": 5084,
      "Î¹Îº": 5085,
      "aki": 5086,
      "erne": 5087,
      "Ġdeal": 5088,
      "Ġpatients": 5089,
      "Ġexplain": 5090,
      "Ġmatter": 5091,
      "Ã³g": 5092,
      "Ġgames": 5093,
      "Ġsituation": 5094,
      "à¦ķ": 5095,
      "ĠÃ¤": 5096,
      "ello": 5097,
      "Ġinternational": 5098,
      "iÅ¡k": 5099,
      "ago": 5100,
      "lat": 5101,
      "Ġà¦ķ": 5102,
      "Ġwie": 5103,
      "ĠÅ¼": 5104,
      "Ġlie": 5105,
      "ĠAir": 5106,
      "ÑĤÑĮ": 5107,
      "oft": 5108,
      "ĠtÃ«": 5109,
      "Ġfoot": 5110,
      "Ġwat": 5111,
      "Ġgyd": 5112,
      "âĢĺ": 5113,
      "Ġfog": 5114,
      "Ġalmost": 5115,
      "Ġbuvo": 5116,
      "Ġwurde": 5117,
      "Ã¡ly": 5118,
      "ÐĲ": 5119,
      "Ã©st": 5120,
      "oria": 5121,
      "Ġball": 5122,
      "Ġfort": 5123,
      "Ġsit": 5124,
      "ĉĉĉĉ": 5125,
      "Se": 5126,
      "har": 5127,
      "sych": 5128,
      "ikai": 5129,
      "ournal": 5130,
      "bt": 5131,
      "Ġmond": 5132,
      "ĠLond": 5133,
      "Ġnote": 5134,
      "irit": 5135,
      "à¾²": 5136,
      "ë¡ľ": 5137,
      "à§ĭ": 5138,
      "ĠRuss": 5139,
      "ĠfÃ¥": 5140,
      "Ġnom": 5141,
      "arget": 5142,
      "ĠÑģÐ²": 5143,
      "Ġnog": 5144,
      "Ġneeded": 5145,
      "Ġindustry": 5146,
      "ØªÙĬ": 5147,
      "Ġlay": 5148,
      "Ġhem": 5149,
      "áĥĲáĥľ": 5150,
      "ĠEnglish": 5151,
      "ged": 5152,
      "key": 5153,
      "ĠÃ©tÃ©": 5154,
      "Ġfinancial": 5155,
      "Ġbuy": 5156,
      "ÑĸÐ²": 5157,
      "Ġpresident": 5158,
      "à·Ķ": 5159,
      "Ġru": 5160,
      "Ġbecame": 5161,
      "ĠÒ¯": 5162,
      "geb": 5163,
      "Ġlevels": 5164,
      "áģĭ": 5165,
      "Ġadded": 5166,
      "ership": 5167,
      "antes": 5168,
      "Ġnh": 5169,
      "Ġsaf": 5170,
      "Ġfamil": 5171,
      "ÙĢ": 5172,
      "Ġissue": 5173,
      "Ġmid": 5174,
      "inder": 5175,
      "ĠÃ©l": 5176,
      "ander": 5177,
      "Ø°Ùĩ": 5178,
      "ä»¥": 5179,
      "vest": 5180,
      "aro": 5181,
      "åĳ": 5182,
      "Ġuser": 5183,
      "ĠÕ§": 5184,
      "Ġkw": 5185,
      "Ġbeaut": 5186,
      "ĠÐ´Ð°": 5187,
      "esh": 5188,
      "Ġfront": 5189,
      "ĠYour": 5190,
      "Ġwriting": 5191,
      "Ġliving": 5192,
      "íķľ": 5193,
      "Ġprovides": 5194,
      "Ġgrowth": 5195,
      "Ġdeliver": 5196,
      "ë¥": 5197,
      "Õ«Õ": 5198,
      "ĠBu": 5199,
      "ĠSw": 5200,
      "sch": 5201,
      "æĢ": 5202,
      "OL": 5203,
      "Ġpaper": 5204,
      "bit": 5205,
      "Ġago": 5206,
      "ĠRo": 5207,
      "Ð¡": 5208,
      "Ġnecessary": 5209,
      "ĠEz": 5210,
      "ÅĤa": 5211,
      "znÃ¡l": 5212,
      "Ġstress": 5213,
      "Ġlanguage": 5214,
      "ohol": 5215,
      "ÄĹti": 5216,
      "Ġexam": 5217,
      "Ġblog": 5218,
      "Ð½Ð¾ÑģÑĤ": 5219,
      "Ġped": 5220,
      "ÛĮØ±": 5221,
      "ĠMr": 5222,
      "Ġenerg": 5223,
      "Ġexerc": 5224,
      "atory": 5225,
      "ainen": 5226,
      "kÃ©": 5227,
      "Ã¡bb": 5228,
      "andid": 5229,
      "áĢŀ": 5230,
      "Ġdei": 5231,
      "berg": 5232,
      "ÐµÐ½ÑĤ": 5233,
      "ØªÙī": 5234,
      "Ġcontinue": 5235,
      "±à¸": 5236,
      "eden": 5237,
      "Ġanswer": 5238,
      "eri": 5239,
      "Ø¹ÙĦ": 5240,
      "elijk": 5241,
      "Ġult": 5242,
      "wy": 5243,
      "Ġelement": 5244,
      "Ø³ÙĦ": 5245,
      "ĠChina": 5246,
      "cio": 5247,
      "ederal": 5248,
      "Õ¡ÖĢÕ": 5249,
      "ĠII": 5250,
      "ĠNa": 5251,
      "</": 5252,
      "Ø¯ÙĬ": 5253,
      "arning": 5254,
      "No": 5255,
      "oke": 5256,
      "ÙĩØ±": 5257,
      "Ø³Ø¨": 5258,
      "olution": 5259,
      "ĠLat": 5260,
      "áº¡": 5261,
      "atos": 5262,
      "ÉĻr": 5263,
      "Ġglobal": 5264,
      "Ġstudent": 5265,
      "uti": 5266,
      "oro": 5267,
      "Ġrecogn": 5268,
      "Ġforma": 5269,
      "Ã¡nÃŃ": 5270,
      "ĠÐĶ": 5271,
      "Ġook": 5272,
      "can": 5273,
      "Ġcomplex": 5274,
      "ington": 5275,
      "Ġci": 5276,
      "ĠkÃ¶n": 5277,
      "Be": 5278,
      "Ġconcept": 5279,
      "ĠNorth": 5280,
      "Ð½Ð¾Ð³Ð¾": 5281,
      "Ġblev": 5282,
      "Ġveg": 5283,
      "ÐµÐ½Ð¸Ñı": 5284,
      "Ġfit": 5285,
      "valu": 5286,
      "def": 5287,
      "ĠvÄĵ": 5288,
      "Ã½m": 5289,
      "Ġwind": 5290,
      "Ġanything": 5291,
      "àº§": 5292,
      "áĪį": 5293,
      "dan": 5294,
      "Ġnetwork": 5295,
      "Ġweight": 5296,
      "osta": 5297,
      "Ġquite": 5298,
      "Ġregion": 5299,
      "ÚĨ": 5300,
      "Ġfrequ": 5301,
      "àº»": 5302,
      "Ġsj": 5303,
      "Ġlic": 5304,
      "ĠInter": 5305,
      "ê³ł": 5306,
      "ĠSome": 5307,
      "ĠGerm": 5308,
      "ĠIN": 5309,
      "à¦°": 5310,
      "owa": 5311,
      "áĥł": 5312,
      "eller": 5313,
      "Ġskin": 5314,
      "Ġbru": 5315,
      "ìļ": 5316,
      "head": 5317,
      "ĠÓ©": 5318,
      "Ġcomplete": 5319,
      "ĠÐŀ": 5320,
      "Ġ×ŀ": 5321,
      "ä¸Ĭ": 5322,
      "Ġeks": 5323,
      "Ġtech": 5324,
      "Ġstay": 5325,
      "\")": 5326,
      "Ġseu": 5327,
      "Ġmember": 5328,
      "Ġasked": 5329,
      "ĠDan": 5330,
      "Ġprostit": 5331,
      "ady": 5332,
      "Ġrelig": 5333,
      "×©": 5334,
      "Ġzur": 5335,
      "itation": 5336,
      "ietuv": 5337,
      "à«ĭ": 5338,
      "Ġhost": 5339,
      "IG": 5340,
      "Ø±Ùī": 5341,
      "Ġpurch": 5342,
      "Î´": 5343,
      "Ġband": 5344,
      "hez": 5345,
      "Ġtypes": 5346,
      "Ġprice": 5347,
      "Ġcomputer": 5348,
      "eny": 5349,
      "Ġinvestig": 5350,
      "Ġazt": 5351,
      "×ª": 5352,
      "Ġimm": 5353,
      "eko": 5354,
      "Ġexpress": 5355,
      "ĠestÃ¡": 5356,
      "cover": 5357,
      "Ġpav": 5358,
      "¸°": 5359,
      "Ġbh": 5360,
      "ÑĥÐ²": 5361,
      "pu": 5362,
      "Ġcreated": 5363,
      "Ġsound": 5364,
      "à¶¸": 5365,
      "ĠÕ´": 5366,
      "Ġperfect": 5367,
      "Ġsan": 5368,
      "Ø¨ÙĦ": 5369,
      "Ġprie": 5370,
      "pper": 5371,
      "ĠÃ©v": 5372,
      "Ġprivate": 5373,
      "ĠÃªtre": 5374,
      "UN": 5375,
      "Ġformer": 5376,
      "ords": 5377,
      "Ġeverything": 5378,
      "Ġsche": 5379,
      "ĠDis": 5380,
      "ĠHol": 5381,
      "inc": 5382,
      "Ġcomme": 5383,
      "].": 5384,
      "Ġknowledge": 5385,
      "eti": 5386,
      "auk": 5387,
      "Ġdok": 5388,
      "Ġyourself": 5389,
      "ml": 5390,
      "Ġbreak": 5391,
      "ÙĥÙĦ": 5392,
      "Ġáĥĵ": 5393,
      "Ġcountries": 5394,
      "Ġregular": 5395,
      "Ġonder": 5396,
      "à¥įà¤¤": 5397,
      "Ġtam": 5398,
      "Ġjest": 5399,
      "Ġà¤²": 5400,
      "esto": 5401,
      "ĠTH": 5402,
      "Ġsar": 5403,
      "èĩ": 5404,
      "aves": 5405,
      "Ġnur": 5406,
      "Ġapie": 5407,
      "Ġapr": 5408,
      "Ġsun": 5409,
      "Õ¨": 5410,
      "jekt": 5411,
      "Ġnews": 5412,
      "Ġparty": 5413,
      "Ġkart": 5414,
      "ĠÈĻi": 5415,
      "ĠWindows": 5416,
      "Ġdescrib": 5417,
      "asc": 5418,
      "Ġsense": 5419,
      "ĠMal": 5420,
      "Ġmedical": 5421,
      "sequ": 5422,
      "Ġast": 5423,
      "Ð³Ð°": 5424,
      "rew": 5425,
      "ÄĽt": 5426,
      "ÐµÑģÑĤ": 5427,
      "ÙĬÙģ": 5428,
      "Ġtrou": 5429,
      "Ġtravel": 5430,
      "eft": 5431,
      "Ġimplement": 5432,
      "Ġbegan": 5433,
      "IM": 5434,
      "ĠÙĦÙħ": 5435,
      "áĢ²áĢ·": 5436,
      "ener": 5437,
      "à¹Īà¸": 5438,
      "ĠNet": 5439,
      "Ġperm": 5440,
      "ality": 5441,
      "à½£": 5442,
      "Ġstore": 5443,
      "Ġjak": 5444,
      "ÑĥÑİ": 5445,
      "Ġliter": 5446,
      "Det": 5447,
      "à¯įà®ķ": 5448,
      "Ġels": 5449,
      "bers": 5450,
      "ĠPark": 5451,
      "å¿": 5452,
      "####": 5453,
      "Ġuk": 5454,
      "ĠbÅ«t": 5455,
      "Ġsek": 5456,
      "ience": 5457,
      "yen": 5458,
      "itis": 5459,
      "Ġengine": 5460,
      "Ġreceived": 5461,
      "date": 5462,
      "Ã³t": 5463,
      "Ø¯Ø©": 5464,
      "oks": 5465,
      "Ġexec": 5466,
      "Ġsuff": 5467,
      "Ġclos": 5468,
      "Ġprobably": 5469,
      "Ġmatch": 5470,
      "Ġsubst": 5471,
      "Ġeinem": 5472,
      "Ġinternet": 5473,
      "Ġkra": 5474,
      "Ġequip": 5475,
      "Ø¯Ø§": 5476,
      "Ġsyn": 5477,
      "rim": 5478,
      "vÃ¤nd": 5479,
      "zes": 5480,
      "Ġsport": 5481,
      "mÃ©ny": 5482,
      "Ġprevent": 5483,
      "Ġproces": 5484,
      "Ã¸l": 5485,
      "Ġtransport": 5486,
      "Ú¾": 5487,
      "Ġnaar": 5488,
      "Ġrights": 5489,
      "Ġgad": 5490,
      "á±": 5491,
      "ĠMod": 5492,
      "Ġsecurity": 5493,
      "Ġrecent": 5494,
      "ĠtÃ¶bb": 5495,
      "Ġsong": 5496,
      "æ°": 5497,
      "yes": 5498,
      "Ġrelated": 5499,
      "ÏĨ": 5500,
      "ÑĤÐµ": 5501,
      "ĠJust": 5502,
      "ĠOct": 5503,
      "Ġcapac": 5504,
      "fun": 5505,
      "erap": 5506,
      "Ġinstit": 5507,
      "lad": 5508,
      "ĠPresident": 5509,
      "endant": 5510,
      "aÃ§Ã£o": 5511,
      "Ġreach": 5512,
      "su": 5513,
      "Ġtout": 5514,
      "Ġshows": 5515,
      "Ġcorrect": 5516,
      "Ġprek": 5517,
      "ÑĥÑģ": 5518,
      "áŀ¶áŀĵ": 5519,
      "fel": 5520,
      "enz": 5521,
      "Ġà¥": 5522,
      "Ġgrou": 5523,
      "ÙĨÙī": 5524,
      "àª°": 5525,
      "áģ¼": 5526,
      "Ġgain": 5527,
      "Ġdivers": 5528,
      "icles": 5529,
      "Ġconduct": 5530,
      "Ġitself": 5531,
      "áŀļáŀ": 5532,
      "ÑĥÐ¼": 5533,
      "×ĳ": 5534,
      "nh": 5535,
      "Ġpent": 5536,
      "Ġcsak": 5537,
      "ĠÐ¿ÐµÑĢ": 5538,
      "istration": 5539,
      "aily": 5540,
      "ĠÐ±Ð¾Ð»": 5541,
      "Ġhope": 5542,
      "ĠkÃ¼l": 5543,
      "ĠGoogle": 5544,
      "áī¥": 5545,
      "Ð¸ÑĤÑĮ": 5546,
      "Ġcondition": 5547,
      "zik": 5548,
      "Ġ!": 5549,
      "ef": 5550,
      "Ġnar": 5551,
      "ops": 5552,
      "åĮ": 5553,
      "rict": 5554,
      "Ġah": 5555,
      "Ø£ÙĨ": 5556,
      "Ġpin": 5557,
      "Ãªncia": 5558,
      "abe": 5559,
      "Å¡anÄģs": 5560,
      "Ġpom": 5561,
      "(\"": 5562,
      "ĠÕ¸": 5563,
      "bben": 5564,
      "Ġeffects": 5565,
      "ĠâĢĿ": 5566,
      "Ã¡ciÃ³": 5567,
      "Ġkann": 5568,
      "à®°": 5569,
      "å½": 5570,
      "uks": 5571,
      "ÙĬÙĪ": 5572,
      "All": 5573,
      "oo": 5574,
      "Ġeinen": 5575,
      "Ġjau": 5576,
      "Ġsqu": 5577,
      "rov": 5578,
      "lim": 5579,
      "ĠPa": 5580,
      "Ġlonger": 5581,
      "asy": 5582,
      "Ò¯Ò¯": 5583,
      "ÄĹjo": 5584,
      "Sh": 5585,
      "unch": 5586,
      "à¶ļ": 5587,
      "Ġpict": 5588,
      "ulle": 5589,
      "áŀĳ": 5590,
      "Ġblack": 5591,
      "Ġbecom": 5592,
      "Ġwritten": 5593,
      "Ġsat": 5594,
      "Ġeuro": 5595,
      "eles": 5596,
      "Ġground": 5597,
      "rik": 5598,
      "ovan": 5599,
      "Ġvert": 5600,
      "AB": 5601,
      "Ġsimply": 5602,
      "ĠCourt": 5603,
      "ĠTV": 5604,
      "Î¹Î±": 5605,
      "Ġeducation": 5606,
      "Ġà¤Ĺ": 5607,
      "å¹´": 5608,
      "ĠbÅ«ti": 5609,
      "ĠCons": 5610,
      "ÐµÑĩ": 5611,
      "iche": 5612,
      "band": 5613,
      "Ġemail": 5614,
      "âĢŀ": 5615,
      "oor": 5616,
      "æĶ": 5617,
      "RO": 5618,
      "Ġlan": 5619,
      "Úº": 5620,
      "Ġoccur": 5621,
      "ĠnÃ¤": 5622,
      "Ġáĥ¡": 5623,
      "ĠviÅĨ": 5624,
      "ming": 5625,
      "rer": 5626,
      "lichen": 5627,
      "jek": 5628,
      "ieren": 5629,
      "Õ¸ÖĤÕ©": 5630,
      "Ġhttp": 5631,
      "æ³": 5632,
      "Ġlag": 5633,
      "rage": 5634,
      "ĠÙĩØ°Ø§": 5635,
      "ĠSchool": 5636,
      "Ġtaip": 5637,
      "Ġtour": 5638,
      "uel": 5639,
      "Ġ×ĳ": 5640,
      "Ġcommer": 5641,
      "ĠMor": 5642,
      "Ġwordt": 5643,
      "ĠRev": 5644,
      "uda": 5645,
      "IV": 5646,
      "ĠSim": 5647,
      "Ġnei": 5648,
      "ĠdaÅ¾": 5649,
      "Ġfly": 5650,
      "Ġapply": 5651,
      "ĠÙĪØª": 5652,
      "nik": 5653,
      "Ġpeut": 5654,
      "Ġactivities": 5655,
      "mark": 5656,
      "Ġscient": 5657,
      "ktion": 5658,
      "Ġfat": 5659,
      "zk": 5660,
      "á»ĩ": 5661,
      "ĠPaul": 5662,
      "Ġevidence": 5663,
      "orge": 5664,
      "oda": 5665,
      "Ġlate": 5666,
      "Ġpatient": 5667,
      "astic": 5668,
      "Ġeffic": 5669,
      "zz": 5670,
      "ÙĩÙĪ": 5671,
      "elÅĳ": 5672,
      "ĠSam": 5673,
      "Ġgew": 5674,
      "Ġconsidered": 5675,
      "Ġdisease": 5676,
      "Ð¾Ñĩ": 5677,
      "à½łà½²": 5678,
      "isto": 5679,
      "iles": 5680,
      "Å«r": 5681,
      "ĠáĥĲáĥ": 5682,
      "ĠrÃ©s": 5683,
      "Ġbon": 5684,
      "Ġgoal": 5685,
      "ĠØ§ÙĦØ·": 5686,
      "esso": 5687,
      "ĠApril": 5688,
      "ĠsÃ©": 5689,
      "Ġ=>": 5690,
      "ceed": 5691,
      "gra": 5692,
      "Ġplatform": 5693,
      "ĠTur": 5694,
      "Ġfelt": 5695,
      "Ġability": 5696,
      "ĠEgy": 5697,
      "Ġwhite": 5698,
      "Ġcette": 5699,
      "Ġfoi": 5700,
      "Ð°Ñı": 5701,
      "Ġà¤ķà¥ĩ": 5702,
      "ÑĢÐ°Ð½": 5703,
      "Ġdell": 5704,
      "Ġlearning": 5705,
      "ĠAdd": 5706,
      "Ġexact": 5707,
      "Ġgas": 5708,
      "Ġtrying": 5709,
      "ÙĤÙĬ": 5710,
      "Ġdoll": 5711,
      "Ġoptions": 5712,
      "à¦²": 5713,
      "Ġhij": 5714,
      "Ãªme": 5715,
      "idas": 5716,
      "áĢŃáĢ¯": 5717,
      "ì§Ģ": 5718,
      "Ġjog": 5719,
      "Ġgam": 5720,
      "Ph": 5721,
      "ÙħÙĪ": 5722,
      "Ġmaintain": 5723,
      "rary": 5724,
      "Ġsection": 5725,
      "ĠAmerica": 5726,
      "Ġsono": 5727,
      "Ġcapital": 5728,
      "itting": 5729,
      "Ġmaar": 5730,
      "Ã¡lt": 5731,
      "á»Ļ": 5732,
      "Ġwatch": 5733,
      "iller": 5734,
      "Ġich": 5735,
      "lied": 5736,
      "ttps": 5737,
      "ĠÃ©r": 5738,
      "under": 5739,
      "nas": 5740,
      "uck": 5741,
      "Ġoutside": 5742,
      "åİ": 5743,
      "Ġincludes": 5744,
      "æĬ": 5745,
      "eur": 5746,
      "ĠAf": 5747,
      "ĠAss": 5748,
      "Ġprogress": 5749,
      "ãģĭ": 5750,
      "Ġofficial": 5751,
      "isl": 5752,
      "Ġevents": 5753,
      "ĠComp": 5754,
      "ÐµÑĪ": 5755,
      "Ð°ÑĤÐ°": 5756,
      "erve": 5757,
      "àºĩàº": 5758,
      "isti": 5759,
      "ĠØ¯Ø±": 5760,
      "ppen": 5761,
      "Î¸": 5762,
      "ĠÐł": 5763,
      "Ġug": 5764,
      "Ġsort": 5765,
      "assa": 5766,
      "eln": 5767,
      "Ġtakes": 5768,
      "èµ": 5769,
      "UT": 5770,
      "Ġcut": 5771,
      "Ã¥ng": 5772,
      "à®¤": 5773,
      "Ġdia": 5774,
      "áŀ¸": 5775,
      "ĠAustral": 5776,
      "rot": 5777,
      "è§": 5778,
      "ÙĥÙĪÙĨ": 5779,
      "ĠKar": 5780,
      "Ġgeb": 5781,
      "Ġseems": 5782,
      "ĠÔ": 5783,
      "Ġà¦ª": 5784,
      "ĠRed": 5785,
      "liga": 5786,
      "ĠSa": 5787,
      "oot": 5788,
      "Ġfriend": 5789,
      "à¯Ī": 5790,
      "ĠPal": 5791,
      "ropri": 5792,
      "ikl": 5793,
      "Ġprz": 5794,
      "ĠHet": 5795,
      "Ġfeatures": 5796,
      "Ð½Ð´": 5797,
      "Ġsaw": 5798,
      "ĠTrans": 5799,
      "ëı": 5800,
      "Ñĳ": 5801,
      "iddle": 5802,
      "inu": 5803,
      "Ġìł": 5804,
      "Ġanalysis": 5805,
      "ìľ": 5806,
      "ç§": 5807,
      "Ġsein": 5808,
      "enk": 5809,
      "ĠIr": 5810,
      "Ġbehind": 5811,
      "Ġcareer": 5812,
      "ĠMarch": 5813,
      "lier": 5814,
      "Ġensure": 5815,
      "Ġpus": 5816,
      "ĠdÄĹl": 5817,
      "rosoft": 5818,
      "Ġmell": 5819,
      "ÙĨØª": 5820,
      "ĠsÄĥ": 5821,
      "ĠKe": 5822,
      "ception": 5823,
      "Ġsed": 5824,
      "Ġmilit": 5825,
      "ession": 5826,
      "Ã¼lt": 5827,
      "Ġpractice": 5828,
      "ribution": 5829,
      "Ġprofessional": 5830,
      "Ġnothing": 5831,
      "à§Ģ": 5832,
      "eten": 5833,
      "ĠOf": 5834,
      "ufact": 5835,
      "Ġfacil": 5836,
      "ÐºÐ¾": 5837,
      "acks": 5838,
      "Ġham": 5839,
      "Ġmere": 5840,
      "ĠĠĠĠĠĠ": 5841,
      "vas": 5842,
      "×ĵ": 5843,
      "vor": 5844,
      "ĠGra": 5845,
      "Ġbien": 5846,
      "aur": 5847,
      "vien": 5848,
      "AG": 5849,
      "Ġamer": 5850,
      "àµĨ": 5851,
      "elig": 5852,
      "Ġlai": 5853,
      "Ġprefer": 5854,
      "ivity": 5855,
      "Ġrequest": 5856,
      "undo": 5857,
      "based": 5858,
      "Ġimag": 5859,
      "rote": 5860,
      "ÃŃtÃ¡s": 5861,
      "Is": 5862,
      "Ġkop": 5863,
      "but": 5864,
      "uns": 5865,
      "Ġdemon": 5866,
      "Ġphysical": 5867,
      "ĠJanu": 5868,
      "Ġul": 5869,
      "ĠSal": 5870,
      "áŀĻ": 5871,
      "Ġbehav": 5872,
      "è¦ģ": 5873,
      "Ġnag": 5874,
      "ĠtÄģ": 5875,
      "cret": 5876,
      "åĪ°": 5877,
      "that": 5878,
      "ĠÐ¿ÑĢÐ¾": 5879,
      "ÙħÙĬ": 5880,
      "ÑĤÐ¸": 5881,
      "Ġmix": 5882,
      "ĠAugust": 5883,
      "ĠJune": 5884,
      "Ġtable": 5885,
      "éĻ": 5886,
      "ĠØ£ÙĬ": 5887,
      "ìĬ": 5888,
      "Ġà¦¸": 5889,
      "alls": 5890,
      "Ġrele": 5891,
      "ospital": 5892,
      "rum": 5893,
      "ĠÏĦÎ·": 5894,
      "ÐŁ": 5895,
      "ìķ": 5896,
      "ĠpiÃ¹": 5897,
      "ifica": 5898,
      "arter": 5899,
      "Ġ×ľ": 5900,
      "Õ¸ÖĤÕ©Õµ": 5901,
      "ÑĭÐ¼": 5902,
      "atives": 5903,
      "Ġzum": 5904,
      "akes": 5905,
      "Ġimage": 5906,
      "Ġpolitical": 5907,
      "áĭŃ": 5908,
      "çĶ¨": 5909,
      "Ġcup": 5910,
      "Ġtor": 5911,
      "ĠDa": 5912,
      "vid": 5913,
      "àŃģ": 5914,
      "à¤ļ": 5915,
      "Ġblock": 5916,
      "ë¦": 5917,
      "ĠSen": 5918,
      "asons": 5919,
      "ript": 5920,
      "kk": 5921,
      "ĠAut": 5922,
      "ê°Ģ": 5923,
      "Ġà¦¬": 5924,
      "jt": 5925,
      "Ġimmedi": 5926,
      "ĠInternet": 5927,
      "Ġfix": 5928,
      "ĠlÃ©": 5929,
      "áº£": 5930,
      "izz": 5931,
      "ĠJes": 5932,
      "áĪµ": 5933,
      "Ġwrite": 5934,
      "Ġzw": 5935,
      "ĠInternational": 5936,
      "inst": 5937,
      "Ġorigin": 5938,
      "Ã¨me": 5939,
      "Ġpode": 5940,
      "oka": 5941,
      "Ġkai": 5942,
      "ds": 5943,
      "Ġrunning": 5944,
      "×ĲÖ·": 5945,
      "'d": 5946,
      "Ġreported": 5947,
      "áŀ¾": 5948,
      "Ġoly": 5949,
      "Ġmik": 5950,
      "ĠmÃ¡r": 5951,
      "Ã©nek": 5952,
      "Ã©ly": 5953,
      "fÃ¼": 5954,
      "emon": 5955,
      "áŁĤ": 5956,
      "Ġded": 5957,
      "Ġpolicy": 5958,
      "Ġrom": 5959,
      "ĠLondon": 5960,
      "Ġpam": 5961,
      "Ġdeux": 5962,
      "ĠPort": 5963,
      "Ð½ÑĭÑħ": 5964,
      "kol": 5965,
      "tai": 5966,
      "Ġmol": 5967,
      "Ġsoon": 5968,
      "Ġindepend": 5969,
      "aving": 5970,
      "ĠÕ¯": 5971,
      "ĠIS": 5972,
      "Ġacqu": 5973,
      "thern": 5974,
      "itz": 5975,
      "Ġusers": 5976,
      "Ġbehand": 5977,
      "tee": 5978,
      "yer": 5979,
      "Ġef": 5980,
      "gest": 5981,
      "åĢ": 5982,
      "Ġeffective": 5983,
      "ĠFre": 5984,
      "ÙĥØ§ÙĨ": 5985,
      "ĠØ«": 5986,
      "Ġconnect": 5987,
      "Ġjag": 5988,
      "Ġhorm": 5989,
      "mm": 5990,
      "Ó©ÑĢ": 5991,
      "ĠBel": 5992,
      "Te": 5993,
      "izing": 5994,
      "Ġprem": 5995,
      "fig": 5996,
      "Ġrat": 5997,
      "Ġeconomic": 5998,
      "cket": 5999,
      "Ġwonder": 6000,
      "Åł": 6001,
      "Õ¡Õ´": 6002,
      "Ġizm": 6003,
      "æł": 6004,
      "Ġoffice": 6005,
      "udz": 6006,
      "Ġinvolved": 6007,
      "à°¨": 6008,
      "Ġveh": 6009,
      "Ġflow": 6010,
      "dal": 6011,
      "rac": 6012,
      "ĠÐ°Ð»": 6013,
      "anie": 6014,
      "Ã¡val": 6015,
      "pecial": 6016,
      "Ġbuilt": 6017,
      "mal": 6018,
      "Die": 6019,
      "LE": 6020,
      "Ġdraw": 6021,
      "itos": 6022,
      "used": 6023,
      "éĿ": 6024,
      "Ġlost": 6025,
      "à¤£": 6026,
      "cho": 6027,
      "iana": 6028,
      "IP": 6029,
      "Ġforward": 6030,
      "obb": 6031,
      "ache": 6032,
      "ÏĦÎ±": 6033,
      "Ġadditional": 6034,
      "Il": 6035,
      "Ġtown": 6036,
      "ĠSystem": 6037,
      "ĠÙĦÙĩ": 6038,
      "Ġcompon": 6039,
      "iar": 6040,
      "taa": 6041,
      "like": 6042,
      "Ġà¥¤": 6043,
      "lor": 6044,
      "Ġtele": 6045,
      "iful": 6046,
      "Ġplayers": 6047,
      "vez": 6048,
      "Ġcells": 6049,
      "Ġwanted": 6050,
      "Ġmechan": 6051,
      "ÑĥÑĩ": 6052,
      "Ġsold": 6053,
      "IR": 6054,
      "ĠHigh": 6055,
      "ĠKing": 6056,
      "Ġtrack": 6057,
      "Ġkir": 6058,
      "aces": 6059,
      "Ä¼u": 6060,
      "à¼ĭà½¢à¾": 6061,
      "ĠmÃ©g": 6062,
      "à¯įà®¤": 6063,
      "Ð»ÐµÐ½": 6064,
      "Ġcomment": 6065,
      "à¾±à½²": 6066,
      "Ã©ge": 6067,
      "stat": 6068,
      "åĴĮ": 6069,
      "Ġtechni": 6070,
      "isions": 6071,
      "itude": 6072,
      "Ġtrav": 6073,
      "Ġresponse": 6074,
      "gn": 6075,
      "ĠJapan": 6076,
      "Ġpositive": 6077,
      "Ġaffect": 6078,
      "Äĵs": 6079,
      "NA": 6080,
      "àºļ": 6081,
      "Ø¡": 6082,
      "Ð¸Ð³": 6083,
      "ilo": 6084,
      "BC": 6085,
      "ĠLib": 6086,
      "inte": 6087,
      "ĠdÃ©c": 6088,
      "Ġaverage": 6089,
      "Ġescort": 6090,
      "has": 6091,
      "erk": 6092,
      "Ġsag": 6093,
      "itas": 6094,
      "\">": 6095,
      "zione": 6096,
      "à¦®": 6097,
      "åı¯": 6098,
      "Ġcross": 6099,
      "ãĤĮ": 6100,
      "ĠÕ¥": 6101,
      "ÐµÐ¿": 6102,
      "ĠnÃ¥g": 6103,
      "urance": 6104,
      "lands": 6105,
      "Ġsab": 6106,
      "ING": 6107,
      "×Ł": 6108,
      "Åĳk": 6109,
      "apa": 6110,
      "aria": 6111,
      "ivel": 6112,
      "Ġbott": 6113,
      "bum": 6114,
      "Äģv": 6115,
      "à¤¬": 6116,
      "ĠUSA": 6117,
      "Ġreci": 6118,
      "Ġdeep": 6119,
      "Ġleave": 6120,
      "ĠTw": 6121,
      "Ġà¤Ń": 6122,
      "Ġimprove": 6123,
      "ĠWhile": 6124,
      "ĠkÃ¶vet": 6125,
      "Ãī": 6126,
      "ĠSeptember": 6127,
      "just": 6128,
      "ĠSi": 6129,
      "ĠDire": 6130,
      "emos": 6131,
      "airs": 6132,
      "Ġfer": 6133,
      "Ġbod": 6134,
      "Ã¸re": 6135,
      "å±": 6136,
      "pport": 6137,
      "Â«": 6138,
      "Ġchoose": 6139,
      "Ġoc": 6140,
      "Ġpul": 6141,
      "oga": 6142,
      "Ġdim": 6143,
      "áŀĸ": 6144,
      "Ġselect": 6145,
      "ĠÃ¶ver": 6146,
      "ĠtÃ¡": 6147,
      "Ġappropri": 6148,
      "ÙĥØ±": 6149,
      "inas": 6150,
      "Ġcm": 6151,
      "ĠÐĺ": 6152,
      "Ġincluded": 6153,
      "ÑĸÐ»": 6154,
      "Ġinstead": 6155,
      "iente": 6156,
      "atz": 6157,
      "Ġkh": 6158,
      "Ġplease": 6159,
      "Å¡ana": 6160,
      "room": 6161,
      "ÅĤo": 6162,
      "pii": 6163,
      "Ġvict": 6164,
      "ĠsÃ£o": 6165,
      "OP": 6166,
      "Ġpick": 6167,
      "áŁĦ": 6168,
      "ĠÑĢÐ°Ð·": 6169,
      "ĠÐ±Ð°Ð¹": 6170,
      "Ġbasis": 6171,
      "Ð½Ð¾Ð¹": 6172,
      "Ġannoun": 6173,
      "Ġtransfer": 6174,
      "vey": 6175,
      "ĠÑĤÐ°Ðº": 6176,
      "atter": 6177,
      "Ä±r": 6178,
      "Ġattempt": 6179,
      "áĥļ": 6180,
      "http": 6181,
      "det": 6182,
      "Ġchem": 6183,
      "ĠvÃ©g": 6184,
      "elo": 6185,
      "Ġthemselves": 6186,
      "Ġkm": 6187,
      "ĠÙĩÙĪ": 6188,
      "CH": 6189,
      "Ġuns": 6190,
      "Ġstrength": 6191,
      "ieg": 6192,
      "uo": 6193,
      "enda": 6194,
      "¨àµįà´": 6195,
      "Ġcz": 6196,
      "fon": 6197,
      "ÐĿ": 6198,
      "ifier": 6199,
      "ìĿĢ": 6200,
      "Ġbenefits": 6201,
      "ĠJuly": 6202,
      "ĠEU": 6203,
      "Ġmah": 6204,
      "ĠTa": 6205,
      "ĠRec": 6206,
      "Ġoptim": 6207,
      "Ġnation": 6208,
      "Pr": 6209,
      "Ġweeks": 6210,
      "ê²": 6211,
      "Ġdesigned": 6212,
      "ENT": 6213,
      "Ġactivity": 6214,
      "haps": 6215,
      "çİ": 6216,
      "ÓĻÐ½": 6217,
      "Ġmens": 6218,
      "Ġdeze": 6219,
      "enge": 6220,
      "Ġaspect": 6221,
      "Ġremember": 6222,
      "Ġassociated": 6223,
      "ccording": 6224,
      "ĠDavid": 6225,
      "los": 6226,
      "Ġsurface": 6227,
      "Ġdiet": 6228,
      "ÐµÐ±": 6229,
      "Ġsand": 6230,
      "Ġexpected": 6231,
      "ÙĪØª": 6232,
      "uan": 6233,
      "ului": 6234,
      "With": 6235,
      "ĠInt": 6236,
      "'Ã©": 6237,
      "Ġcirc": 6238,
      "ĠlÃ¦": 6239,
      "Ġfan": 6240,
      "Ġflu": 6241,
      "Ġlov": 6242,
      "Ġthroughout": 6243,
      "->": 6244,
      "Ġaqu": 6245,
      "ĠBet": 6246,
      "Õ¾": 6247,
      "Ġparents": 6248,
      "nam": 6249,
      "Ġceleb": 6250,
      "iems": 6251,
      "iker": 6252,
      "osis": 6253,
      "Ġrap": 6254,
      "Ġlit": 6255,
      "Ġpentru": 6256,
      "Ġskills": 6257,
      "Ġlui": 6258,
      "Ġreceive": 6259,
      "ĠlÄ«dz": 6260,
      "Ġsomet": 6261,
      "ĠÙħØŃ": 6262,
      "Ġiki": 6263,
      "iju": 6264,
      "enne": 6265,
      "ground": 6266,
      "åĩº": 6267,
      "Ġble": 6268,
      "iano": 6269,
      "iforn": 6270,
      "Ġcalcul": 6271,
      "ymo": 6272,
      "arna": 6273,
      "nych": 6274,
      "'une": 6275,
      "coin": 6276,
      "à°Ĥà°": 6277,
      "rak": 6278,
      "Ġapl": 6279,
      "ĠkÃ¶r": 6280,
      "duc": 6281,
      "ovat": 6282,
      "lige": 6283,
      "Ġpoz": 6284,
      "ĠnÃ¤r": 6285,
      "ĠØªØŃ": 6286,
      "Ġprobl": 6287,
      "Ġhus": 6288,
      "ÐĴ": 6289,
      "tty": 6290,
      "ãģ£": 6291,
      "vÃ¤": 6292,
      "ÑĤÐµÑĢ": 6293,
      "blic": 6294,
      "Ã¡sok": 6295,
      "Ġcancer": 6296,
      "ØªØ¨": 6297,
      "uten": 6298,
      "Ġporn": 6299,
      "Ġunique": 6300,
      "ĠÃºj": 6301,
      "ĠSk": 6302,
      "Ġpressure": 6303,
      "ĠCanada": 6304,
      "Ġobtain": 6305,
      "Ġminden": 6306,
      "ĠfÃ¶": 6307,
      "onder": 6308,
      "Ġdeveloped": 6309,
      "ĠMart": 6310,
      "ging": 6311,
      "Ġquant": 6312,
      "Ġshown": 6313,
      "enta": 6314,
      "à¤ľ": 6315,
      "Ġrez": 6316,
      "Ġstructure": 6317,
      "Ïİ": 6318,
      "change": 6319,
      "à¨¿à¨": 6320,
      "Ġpublished": 6321,
      "ĠvocÃª": 6322,
      "email": 6323,
      "Ġlives": 6324,
      "Ġemot": 6325,
      "Ø§ÙĬ": 6326,
      "Ġlev": 6327,
      "Ġreading": 6328,
      "çĶŁ": 6329,
      "Ġrespond": 6330,
      "Ġkaj": 6331,
      "ĠØ§ÙĪ": 6332,
      "ĠpÅĻÃŃ": 6333,
      "cias": 6334,
      "Ġbox": 6335,
      "Ġrob": 6336,
      "aste": 6337,
      "Ġboard": 6338,
      "sg": 6339,
      "Ġeveryone": 6340,
      "à½Ĥà½¦": 6341,
      "ÐµÑģÐº": 6342,
      "Ġcat": 6343,
      "ograf": 6344,
      "ĠAN": 6345,
      "Ġclub": 6346,
      "Ġcert": 6347,
      "ĠktÃ³": 6348,
      "Ø³ÙĬ": 6349,
      "ĠOff": 6350,
      "Ġbeteg": 6351,
      "Ġmun": 6352,
      "ĠHouse": 6353,
      "Ġstyle": 6354,
      "yan": 6355,
      "Ġton": 6356,
      "ĠLos": 6357,
      "'a": 6358,
      "Ò¡": 6359,
      "Ġdemand": 6360,
      "Im": 6361,
      "ĠprÃ©": 6362,
      "ĠCounty": 6363,
      "Öī": 6364,
      "Ġtarget": 6365,
      "Ø¯Ø±": 6366,
      "Ġstudies": 6367,
      "à¤¾à¤²": 6368,
      "inde": 6369,
      "Ġpartner": 6370,
      "ãĥ³": 6371,
      "Ġszem": 6372,
      "ĠFil": 6373,
      "elles": 6374,
      "rÃ©": 6375,
      "ÙĪÙģ": 6376,
      "Ġprint": 6377,
      "à±ĩ": 6378,
      "tait": 6379,
      "Ġplayed": 6380,
      "vÃŃ": 6381,
      "Ġcenter": 6382,
      "rate": 6383,
      "áĢºáĢ¸": 6384,
      "Ġmother": 6385,
      "Ġfot": 6386,
      "ÙĤÙĦ": 6387,
      "data": 6388,
      "iday": 6389,
      "ims": 6390,
      "mos": 6391,
      "Ġnou": 6392,
      "ëĵ": 6393,
      "Ġcoming": 6394,
      "ĠNovember": 6395,
      "Ġsak": 6396,
      "Ġattention": 6397,
      "Ġincreased": 6398,
      "ÚŃ": 6399,
      "ĠMac": 6400,
      "Ġgradu": 6401,
      "ĠvÃŃ": 6402,
      "rial": 6403,
      "Ö¸": 6404,
      "ÛķØ±": 6405,
      "Ġmult": 6406,
      "ties": 6407,
      "aza": 6408,
      "ÑĸÐ½": 6409,
      "esis": 6410,
      "irg": 6411,
      "Ġkons": 6412,
      "à¤¾à¤Ĥ": 6413,
      "ĠSl": 6414,
      "cie": 6415,
      "ektr": 6416,
      "Ġtend": 6417,
      "Ġcosts": 6418,
      "Ðļ": 6419,
      "áĭį": 6420,
      "ë¥¼": 6421,
      "ijke": 6422,
      "umo": 6423,
      "aden": 6424,
      "Ġassess": 6425,
      "Ġfait": 6426,
      "dir": 6427,
      "Ġpopulation": 6428,
      "Ġsolution": 6429,
      "ĠTer": 6430,
      "Ġcurrently": 6431,
      "Ġfirm": 6432,
      "æŀ": 6433,
      "ĠâĢ¦": 6434,
      "ĠEuropean": 6435,
      "Ġconcent": 6436,
      "UL": 6437,
      "ãģĨ": 6438,
      "Ġnous": 6439,
      "ï¼ļ": 6440,
      "ĠkÃ¤": 6441,
      "Ġcompos": 6442,
      "amo": 6443,
      "ĠForm": 6444,
      "Ġmention": 6445,
      "tak": 6446,
      "aires": 6447,
      "ĠÎ´": 6448,
      "Ġalc": 6449,
      "arth": 6450,
      "ĠMet": 6451,
      "Ġjako": 6452,
      "Ġparts": 6453,
      "Ġresources": 6454,
      "Ġmanufact": 6455,
      "Ġpsych": 6456,
      "ĠrÃ©g": 6457,
      "iot": 6458,
      "Ġfram": 6459,
      "ĠáĥĴ": 6460,
      "Ġunter": 6461,
      "auf": 6462,
      "Cl": 6463,
      "Ġexpos": 6464,
      "ĠÑģÐ»": 6465,
      "egy": 6466,
      "Ġnaj": 6467,
      "åĵ": 6468,
      "Ã¤h": 6469,
      "ĠÃ¡t": 6470,
      "Ġeu": 6471,
      "istas": 6472,
      "resp": 6473,
      "ĠØªØ¹": 6474,
      "uw": 6475,
      "bel": 6476,
      "ĠhasznÃ¡l": 6477,
      "kra": 6478,
      "Ġisn": 6479,
      "à¤¾à¤¤": 6480,
      "Ġviz": 6481,
      "inar": 6482,
      "Ġgroups": 6483,
      "Ġfest": 6484,
      "Ġhvor": 6485,
      "Ġworth": 6486,
      "ĠJanuary": 6487,
      "Ġtok": 6488,
      "æĦ": 6489,
      "Åĳs": 6490,
      "Ġ×©": 6491,
      "Par": 6492,
      "ĠáĬ¥": 6493,
      "Ãºn": 6494,
      "agement": 6495,
      "Ġmaxim": 6496,
      "Ġstaff": 6497,
      "ĠChe": 6498,
      "iqu": 6499,
      "By": 6500,
      "ĠÃ³": 6501,
      "Ġdette": 6502,
      "Ġserious": 6503,
      "Ġopportunity": 6504,
      "imb": 6505,
      "à¼ĭà½ĵ": 6506,
      "âĢľ,": 6507,
      "toj": 6508,
      "ĠRet": 6509,
      "Ġnors": 6510,
      "Ã¥ll": 6511,
      "term": 6512,
      "hood": 6513,
      "Ø´Ø±": 6514,
      "Ġpurpose": 6515,
      "Ġmultiple": 6516,
      "Ġlabor": 6517,
      "Ġaccom": 6518,
      "ĠPo": 6519,
      "à´¤": 6520,
      "edia": 6521,
      "ingu": 6522,
      "ees": 6523,
      "à°°": 6524,
      "encia": 6525,
      "tes": 6526,
      "Ġhund": 6527,
      "Ä«ba": 6528,
      "Ã«r": 6529,
      "idades": 6530,
      "Ġ×ķ": 6531,
      "Ġpens": 6532,
      "ĠMad": 6533,
      "ulu": 6534,
      "attle": 6535,
      "anz": 6536,
      "Ø§ÙĨÙĬ": 6537,
      "¡à¸": 6538,
      "Ġstates": 6539,
      "Ġrou": 6540,
      "Ġdevice": 6541,
      "à²µ": 6542,
      "ĠÐ¿Ð¾Ð´": 6543,
      "rian": 6544,
      "Ġallows": 6545,
      "áĢģ": 6546,
      "My": 6547,
      "åĽ½": 6548,
      "asz": 6549,
      "ĠGre": 6550,
      "ÏĦÎµ": 6551,
      "ĠDel": 6552,
      "Ġcentral": 6553,
      "ĠØ¹ÙĦÙĬ": 6554,
      "ikor": 6555,
      "Ġinstr": 6556,
      "ØŁ": 6557,
      "iÃ³n": 6558,
      "ÐµÐ¶": 6559,
      "Ġvand": 6560,
      "Ġverd": 6561,
      "ĠCenter": 6562,
      "ìĦľ": 6563,
      "chaft": 6564,
      "ĠAus": 6565,
      "yp": 6566,
      "isp": 6567,
      "iÄħ": 6568,
      "ĠWash": 6569,
      "pped": 6570,
      "uman": 6571,
      "jan": 6572,
      "test": 6573,
      "Ġcredit": 6574,
      "ĠNow": 6575,
      "à¶±à·Ĭ": 6576,
      "Ġoption": 6577,
      "rait": 6578,
      "ÄĻs": 6579,
      "æİ": 6580,
      "Ġcivil": 6581,
      "ector": 6582,
      "Ġlimit": 6583,
      "ĠØ¨Ø±": 6584,
      "Ġiniti": 6585,
      "icip": 6586,
      "ĠSz": 6587,
      "round": 6588,
      "á»ĳ": 6589,
      "áŀħ": 6590,
      "ĠÙĩØ°Ùĩ": 6591,
      "ãĤĤ": 6592,
      "ĠÙħÛĮ": 6593,
      "ije": 6594,
      "rÃ¥": 6595,
      "Ġabsol": 6596,
      "xy": 6597,
      "Ġlid": 6598,
      "wise": 6599,
      "Ġconsist": 6600,
      "ĠÃ»": 6601,
      "ouw": 6602,
      "ĠMil": 6603,
      "Ġele": 6604,
      "Ġdisplay": 6605,
      "wood": 6606,
      "Ġê°": 6607,
      "vos": 6608,
      "Ø§ÙĪ": 6609,
      "ĠInstit": 6610,
      "Ġcateg": 6611,
      "Ġlok": 6612,
      "Ġconvers": 6613,
      "ĠUs": 6614,
      "Ne": 6615,
      "Ã¼t": 6616,
      "Ã¼let": 6617,
      "ĠÐ²Ñĭ": 6618,
      "enen": 6619,
      "ĠSol": 6620,
      "Ð´Ñĭ": 6621,
      "æĻ": 6622,
      "ãĤĬ": 6623,
      "Ġheat": 6624,
      "Ġculture": 6625,
      "CC": 6626,
      "Ðŀ": 6627,
      "aciones": 6628,
      "Ûĭ": 6629,
      "Ġcommit": 6630,
      "PS": 6631,
      "ĠIndia": 6632,
      "ĠÐ£": 6633,
      "ombre": 6634,
      "Ġsok": 6635,
      "Ġplaying": 6636,
      "Ġscreen": 6637,
      "Ġoffers": 6638,
      "Ġpirm": 6639,
      "Å¡e": 6640,
      "Ġdre": 6641,
      "ä¸ª": 6642,
      "Ð²Ð°": 6643,
      "aper": 6644,
      "Ġchalleng": 6645,
      "ags": 6646,
      "Ġrelease": 6647,
      "Ad": 6648,
      "ä¸º": 6649,
      "Ġinside": 6650,
      "Ġpes": 6651,
      "ĠLu": 6652,
      "Ġwid": 6653,
      "Ġsites": 6654,
      "Ġfeed": 6655,
      "olf": 6656,
      "Ġforce": 6657,
      "IA": 6658,
      "Ġviss": 6659,
      "eszt": 6660,
      "áŀĬ": 6661,
      "Ġhimself": 6662,
      "ideo": 6663,
      "itial": 6664,
      "Ġquickly": 6665,
      "Ġreduce": 6666,
      "Ø§ÙĦÙħ": 6667,
      "itect": 6668,
      "åī": 6669,
      "Ġpla": 6670,
      "Ø¯Ùī": 6671,
      "uses": 6672,
      "Å¡u": 6673,
      "chi": 6674,
      "Ġbelie": 6675,
      "umas": 6676,
      "One": 6677,
      "nÃ¡": 6678,
      "ĠMore": 6679,
      "Ġletter": 6680,
      "Ġpir": 6681,
      "Ġcos": 6682,
      "Ġmort": 6683,
      "ĠThen": 6684,
      "ĠInc": 6685,
      "Õ¸ÖĤÕ¶": 6686,
      "ÑĢÐ¾": 6687,
      "Ð¼Ð¸": 6688,
      "ichael": 6689,
      "light": 6690,
      "field": 6691,
      "çľ": 6692,
      "Ġcentury": 6693,
      "Ġheeft": 6694,
      "Ġworked": 6695,
      "produ": 6696,
      "organ": 6697,
      "ĠÅĳ": 6698,
      "Ġevalu": 6699,
      "Ġgratis": 6700,
      "Ġtitle": 6701,
      "Ġpuede": 6702,
      "ĠLin": 6703,
      "tains": 6704,
      "ÑĨÐ¸": 6705,
      "Ġplayer": 6706,
      "Ġrelev": 6707,
      "ĠÛģ": 6708,
      "Ġà»": 6709,
      "ĠÙĥÙĦ": 6710,
      "pol": 6711,
      "ĠEin": 6712,
      "Ġsleep": 6713,
      "Ġmys": 6714,
      "ĠÑĤÐ°": 6715,
      "à±ĭ": 6716,
      "ĠÃ¡l": 6717,
      "ãģĵ": 6718,
      "à²²": 6719,
      "Ġvak": 6720,
      "liche": 6721,
      "das": 6722,
      "asje": 6723,
      "Ġmeaning": 6724,
      "Ġprograms": 6725,
      "keit": 6726,
      "×¡": 6727,
      "Ġcandid": 6728,
      "æĹ¥": 6729,
      "ĠAssoci": 6730,
      "Ġsend": 6731,
      "ĠÐĵ": 6732,
      "ĠØ§ÙĦØ°ÙĬ": 6733,
      "ÙĩÙĬ": 6734,
      "ÑįÐ³": 6735,
      "Ġhair": 6736,
      "ikan": 6737,
      "Ġchi": 6738,
      "Ä«gi": 6739,
      "Ð°Ð¼Ð¸": 6740,
      "ĠÑĩÑĤÐ¾": 6741,
      "ĠprÃ©s": 6742,
      "Ġmessage": 6743,
      "Ġwaar": 6744,
      "Õ¡Õ¿": 6745,
      "ĠmaÅ¾": 6746,
      "oster": 6747,
      "ĠØ°ÙĦÙĥ": 6748,
      "``": 6749,
      "aged": 6750,
      "Ġnad": 6751,
      "rier": 6752,
      "Ġfather": 6753,
      "Ġborn": 6754,
      "uoj": 6755,
      "Ġgave": 6756,
      "Ġrela": 6757,
      "Ġaber": 6758,
      "ĠHealth": 6759,
      "amer": 6760,
      "Ġcru": 6761,
      "Ġviel": 6762,
      "Ġleur": 6763,
      "à¼ĭà½¡": 6764,
      "ØµÙĦ": 6765,
      "Ø³Ùħ": 6766,
      "ÅĨu": 6767,
      "Ã¯": 6768,
      "eto": 6769,
      "Ġ×¤": 6770,
      "esen": 6771,
      "Ġfine": 6772,
      "Ø¯Ùħ": 6773,
      "ÑĤÑĭ": 6774,
      "Ġfeature": 6775,
      "itate": 6776,
      "ribute": 6777,
      "ĠØ¨Ø¹Ø¯": 6778,
      "Ġdelle": 6779,
      "Ġeasily": 6780,
      "acebook": 6781,
      "×¤": 6782,
      "Ġcontra": 6783,
      "Ġnumer": 6784,
      "ĠLietuv": 6785,
      "ÏĦÎ¿": 6786,
      "heid": 6787,
      "ĠOs": 6788,
      "vement": 6789,
      "Ind": 6790,
      "àº°àº": 6791,
      "æĥ": 6792,
      "lege": 6793,
      "Ġsometimes": 6794,
      "acional": 6795,
      "Ġrich": 6796,
      "×§": 6797,
      "å¥½": 6798,
      "Ġnat": 6799,
      "viet": 6800,
      "Ġbere": 6801,
      "ĠÃ½": 6802,
      "stra": 6803,
      "à²¨": 6804,
      "car": 6805,
      "Ġhappy": 6806,
      "Ġ×ĵ": 6807,
      "aven": 6808,
      "Ġmeasure": 6809,
      "áĢ¸": 6810,
      "ĠÐ²Ñģ": 6811,
      "Ġunderstanding": 6812,
      "ÙĪØ¹": 6813,
      "Ġmand": 6814,
      "ĠCO": 6815,
      "type": 6816,
      "where": 6817,
      "Ġdiff": 6818,
      "juk": 6819,
      "Ġdh": 6820,
      "cious": 6821,
      "æ¯": 6822,
      "åĺ": 6823,
      "Ġpremi": 6824,
      "Ð¸ÑĤÐµ": 6825,
      "éĹ": 6826,
      "Ġencou": 6827,
      "ĠFe": 6828,
      "bed": 6829,
      "Ġchance": 6830,
      "vy": 6831,
      "Ġfant": 6832,
      "ÙĦÙģ": 6833,
      "Ġlength": 6834,
      "Ġdetails": 6835,
      "à²Ĥ": 6836,
      "edy": 6837,
      "ĠmÃ¡": 6838,
      "ĠJames": 6839,
      "idel": 6840,
      "ĠKom": 6841,
      "Ġges": 6842,
      "import": 6843,
      "Ġdenne": 6844,
      "Ð¢": 6845,
      "atisf": 6846,
      "ybos": 6847,
      "Ġstatement": 6848,
      "atta": 6849,
      "ĠÐ¿Ð¾Ð»": 6850,
      "Ġsurv": 6851,
      "ĠOctober": 6852,
      "ounts": 6853,
      "aja": 6854,
      "Ø§Ø±ÙĬ": 6855,
      "Ġalk": 6856,
      "ĠLaw": 6857,
      "Ġrecently": 6858,
      "Ġturi": 6859,
      "ĠanvÃ¤nd": 6860,
      "Ġuses": 6861,
      "áŁĴáŀĵ": 6862,
      "Úĵ": 6863,
      "ĠProgram": 6864,
      "Ġgebru": 6865,
      "Do": 6866,
      "dr": 6867,
      "ĠDem": 6868,
      "elm": 6869,
      "Ġov": 6870,
      "¥à¸": 6871,
      "Ġolyan": 6872,
      "Ø§Ø±Ø©": 6873,
      "ĠkÃ¼lÃ¶n": 6874,
      "áĪĪ": 6875,
      "Ð¾Ð¼Ñĥ": 6876,
      "aina": 6877,
      "ÓĹ": 6878,
      "Ġarm": 6879,
      "áº¥": 6880,
      "roid": 6881,
      "à¹īà¸": 6882,
      "áĢŃáĢ¯áĢĦ": 6883,
      "cles": 6884,
      "Ġë°": 6885,
      "list": 6886,
      "Ġmaterials": 6887,
      "idents": 6888,
      "Â°": 6889,
      "Ġpopul": 6890,
      "ĠJesus": 6891,
      "ordan": 6892,
      "Ġbeautiful": 6893,
      "Ġselv": 6894,
      "Ġkult": 6895,
      "Ġproduce": 6896,
      "Ġfore": 6897,
      "Ġrelativ": 6898,
      "Ġvalues": 6899,
      "à¤¿à¤ķ": 6900,
      "Ġsut": 6901,
      "iene": 6902,
      "erte": 6903,
      "ÙĦÛĮ": 6904,
      "ĠAfr": 6905,
      "Ġfond": 6906,
      "áŀĩ": 6907,
      "rant": 6908,
      "Ġpeu": 6909,
      "Ã©rie": 6910,
      "áĥĽ": 6911,
      "âĢĻve": 6912,
      "Ġroad": 6913,
      "áĥĲáĥĽ": 6914,
      "Ġszerint": 6915,
      "nem": 6916,
      "å°±": 6917,
      "Ġslow": 6918,
      "Ġcharg": 6919,
      "Ġole": 6920,
      "Ġmad": 6921,
      "×¢×¨": 6922,
      "Ġroll": 6923,
      "Ġdirectly": 6924,
      "âĢĻll": 6925,
      "Ġìķ": 6926,
      "ÑįÑĢ": 6927,
      "Ġnumbers": 6928,
      "inese": 6929,
      "nia": 6930,
      "ajÄģ": 6931,
      "inden": 6932,
      "ozz": 6933,
      "éĥ½": 6934,
      "Ã¼ck": 6935,
      "arily": 6936,
      "istics": 6937,
      "oring": 6938,
      "ĠVol": 6939,
      "ifornia": 6940,
      "cut": 6941,
      "Ġlimited": 6942,
      "Ġvent": 6943,
      "ĮĢ": 6944,
      "ĠØ¨ÙĨ": 6945,
      "ĠDecember": 6946,
      "Ġversch": 6947,
      "Ġvez": 6948,
      "áĥĶáĥļ": 6949,
      "Ġswe": 6950,
      "ĠOm": 6951,
      "Ð°ÑĤÐ¸": 6952,
      "ÅĤy": 6953,
      "Ġavoid": 6954,
      "lab": 6955,
      "Ġsang": 6956,
      "bert": 6957,
      "war": 6958,
      "Ġopin": 6959,
      "Ġvara": 6960,
      "ĠTod": 6961,
      "Ġseksi": 6962,
      "ĠEnt": 6963,
      "çĲ": 6964,
      "Ġgives": 6965,
      "iniai": 6966,
      "Ãºs": 6967,
      "ĠnÄĽ": 6968,
      "Ġdol": 6969,
      "Ġmotor": 6970,
      "DE": 6971,
      "igu": 6972,
      "Ġarba": 6973,
      "Ð¾Ð²Ð°Ð½": 6974,
      "Ġmeeting": 6975,
      "Les": 6976,
      "ĠØ§ÙĦØ«": 6977,
      "Ġye": 6978,
      "Ġsac": 6979,
      "Ġgreen": 6980,
      "è¡Į": 6981,
      "Ð½ÑĭÐµ": 6982,
      "ÏģÎ¿": 6983,
      "Ġlocated": 6984,
      "ski": 6985,
      "Ã¶d": 6986,
      "Ġconsult": 6987,
      "Ġstage": 6988,
      "Ġautor": 6989,
      "ĠHere": 6990,
      "rok": 6991,
      "Ġdop": 6992,
      "ĠBen": 6993,
      "ynam": 6994,
      "áĥĵ": 6995,
      "aign": 6996,
      "ĠmÃ©d": 6997,
      "Ñĺ": 6998,
      "æ²": 6999,
      "Ġhands": 7000,
      "ĠÖ": 7001,
      "Ø±Ø¶": 7002,
      "ĠØ¶": 7003,
      "Ġhang": 7004,
      "Ġgold": 7005,
      "ĠMost": 7006,
      "ekl": 7007,
      "Am": 7008,
      "Ġanyone": 7009,
      "ĠMag": 7010,
      "ĠlÃł": 7011,
      "idge": 7012,
      "Ġlap": 7013,
      "ĠKon": 7014,
      "Ġfair": 7015,
      "ocal": 7016,
      "pad": 7017,
      "anks": 7018,
      "pret": 7019,
      "Ġdemonstr": 7020,
      "Ġfactors": 7021,
      "Ġtwe": 7022,
      "Ø§Ø«": 7023,
      "Ġmap": 7024,
      "ĠaÃ±": 7025,
      "Ġdifference": 7026,
      "oul": 7027,
      "Ġfarm": 7028,
      "ÃŃst": 7029,
      "Ġfal": 7030,
      "Ġwrong": 7031,
      "rench": 7032,
      "Ġow": 7033,
      "ÑįÐ»": 7034,
      "ãĤī": 7035,
      "aging": 7036,
      "Å«d": 7037,
      "Ġseek": 7038,
      "Īĺ": 7039,
      "Ġideas": 7040,
      "Ġactual": 7041,
      "Ã¼nk": 7042,
      "Ġcro": 7043,
      "ĠÙĬÙħ": 7044,
      "rÃ³": 7045,
      "×Ļ×Ŀ": 7046,
      "Õ´": 7047,
      "Er": 7048,
      "Ġbrand": 7049,
      "ĠRich": 7050,
      "Ġgoals": 7051,
      "Ġpark": 7052,
      "Ġdiscover": 7053,
      "Ġkle": 7054,
      "Ġces": 7055,
      "ĠjÄģ": 7056,
      "Ġvari": 7057,
      "ronic": 7058,
      "ĠÎ½": 7059,
      "Ġjur": 7060,
      "Ġhyd": 7061,
      "vend": 7062,
      "Ã¦l": 7063,
      "Ġgest": 7064,
      "ĠkÃ©p": 7065,
      "ĠMer": 7066,
      "Ġakkor": 7067,
      "à²¤": 7068,
      "ĠPet": 7069,
      "illing": 7070,
      "ÐºÑĥ": 7071,
      "ĠFebru": 7072,
      "Ġcouple": 7073,
      "ÐµÐ½Ð¸Ðµ": 7074,
      "Õ¶Õ¥ÖĢ": 7075,
      "igo": 7076,
      "miss": 7077,
      "Ġcin": 7078,
      "ĠFrance": 7079,
      "è¿Ļ": 7080,
      "rio": 7081,
      "à¦¬": 7082,
      "Ġpill": 7083,
      "ifest": 7084,
      "Ġinterview": 7085,
      "'r": 7086,
      "nej": 7087,
      "æĭ": 7088,
      "ÙĦØ¨": 7089,
      "ĠGeneral": 7090,
      "TS": 7091,
      "Name": 7092,
      "ä¾": 7093,
      "ê¸°": 7094,
      "area": 7095,
      "Ġties": 7096,
      "Ġextrem": 7097,
      "Ġfish": 7098,
      "TR": 7099,
      "Ġwrote": 7100,
      "Ġps": 7101,
      "ians": 7102,
      "Ġvariety": 7103,
      "ĠWashington": 7104,
      "iks": 7105,
      "ucle": 7106,
      "Ġrecommend": 7107,
      "ĠGovern": 7108,
      "Ġhur": 7109,
      "Ġpaint": 7110,
      "ķàµįà´": 7111,
      "Ä«s": 7112,
      "ĠCap": 7113,
      "Ġclient": 7114,
      "nÃ½": 7115,
      "rog": 7116,
      "},": 7117,
      "Ġsave": 7118,
      "ordin": 7119,
      "ilos": 7120,
      "Ġadopt": 7121,
      "ĠPor": 7122,
      "itable": 7123,
      "åľ°": 7124,
      "iber": 7125,
      "ÙĩÙĨ": 7126,
      "Ã¦t": 7127,
      "Ġtrade": 7128,
      "Ġandere": 7129,
      "izes": 7130,
      "Ġvu": 7131,
      "Ġtransform": 7132,
      "Ġestim": 7133,
      "ria": 7134,
      "Ġsell": 7135,
      "Ġprodukt": 7136,
      "Ġstatus": 7137,
      "Ġdigital": 7138,
      "Ġlug": 7139,
      "ampions": 7140,
      "èĥ½": 7141,
      "Ġwish": 7142,
      "ĠHist": 7143,
      "prise": 7144,
      "ached": 7145,
      "ĠDepartment": 7146,
      "Ġhelps": 7147,
      "sub": 7148,
      "Ð¸ÑĪ": 7149,
      "DA": 7150,
      "¢à¸": 7151,
      "enc": 7152,
      "ĠTom": 7153,
      "ĠHan": 7154,
      "ĠTai": 7155,
      "å¤ļ": 7156,
      "Pl": 7157,
      "Ġkiek": 7158,
      "Ġlack": 7159,
      "ä¿Ĥ": 7160,
      "egu": 7161,
      "rif": 7162,
      "mail": 7163,
      "Õ¡Õ½": 7164,
      "After": 7165,
      "Ġround": 7166,
      "Ø¨Ø¯": 7167,
      "Ġchoice": 7168,
      "Äįio": 7169,
      "Ġbooks": 7170,
      "Ð»Ð°": 7171,
      "Ð³Ð¾": 7172,
      "isz": 7173,
      "ĠÐ±ÑĭÐ»": 7174,
      "reb": 7175,
      "ĠFirst": 7176,
      "§à¸": 7177,
      "uru": 7178,
      "à¤¿à¤¤": 7179,
      "Ø«Ø±": 7180,
      "ĠÙĪØ£": 7181,
      "Ġfran": 7182,
      "ĠidÅĳ": 7183,
      "ĠØ§ÙĦÙĪ": 7184,
      "Ġdry": 7185,
      "Ġpattern": 7186,
      "apter": 7187,
      "ĠØ¹Ø§Ùħ": 7188,
      "æµ": 7189,
      "Ġnan": 7190,
      "eler": 7191,
      "Ġdecided": 7192,
      "Ġdaily": 7193,
      "Ġgoes": 7194,
      "ĠMicrosoft": 7195,
      "à½¼à½ĳ": 7196,
      "ovÃ©": 7197,
      "Ġinteresting": 7198,
      "ĠÙĪÙİ": 7199,
      "Ġliet": 7200,
      "ujÃŃ": 7201,
      "idi": 7202,
      "enty": 7203,
      "ĠÚª": 7204,
      "pus": 7205,
      "iler": 7206,
      "umÄģ": 7207,
      "è´": 7208,
      "ĠsÃ¤": 7209,
      "Ġprojects": 7210,
      "eno": 7211,
      "Ġtherefore": 7212,
      "Ġgrande": 7213,
      "Ġreflect": 7214,
      "ĠutÃ¡n": 7215,
      "ĠÐ¸Ð½": 7216,
      "Ġcry": 7217,
      "×ķ×ª": 7218,
      "ÏĢÎ¿": 7219,
      "Ð¾ÑĤÐ¾ÑĢ": 7220,
      "oko": 7221,
      "MS": 7222,
      "Ġquando": 7223,
      "Ġapplications": 7224,
      "Ġrace": 7225,
      "ocks": 7226,
      "Ġfight": 7227,
      "Ġscience": 7228,
      "etes": 7229,
      "ĠtÃº": 7230,
      "Ġbillion": 7231,
      "Ġsafety": 7232,
      "Ġdisse": 7233,
      "Ġfeet": 7234,
      "uu": 7235,
      "oca": 7236,
      "bon": 7237,
      "inink": 7238,
      "asis": 7239,
      "Ġspeed": 7240,
      "Ã¡c": 7241,
      "ĠÙħØª": 7242,
      "ĠmÄĽ": 7243,
      "Ġproc": 7244,
      "Ġnebo": 7245,
      "ĠÐ´Ð¾": 7246,
      "ental": 7247,
      "Ġtowards": 7248,
      "Ø§ÙĦÙĬ": 7249,
      "Ġparticularly": 7250,
      "ellow": 7251,
      "Ġpretty": 7252,
      "Ġnd": 7253,
      "wan": 7254,
      "gency": 7255,
      "Ġcustomers": 7256,
      "nda": 7257,
      "Ġdrive": 7258,
      "Ġincreasing": 7259,
      "cast": 7260,
      "ikas": 7261,
      "Ġreve": 7262,
      "Ġdram": 7263,
      "Ġprime": 7264,
      "imu": 7265,
      "'ny": 7266,
      "icated": 7267,
      "Ġrules": 7268,
      "ªà¸": 7269,
      "Ġelektr": 7270,
      "Ġcomfort": 7271,
      "ìĸ": 7272,
      "áŀ¶áŀļáŀ": 7273,
      "Ġbirth": 7274,
      "ĠfÃ¼": 7275,
      "arp": 7276,
      "ĠCoun": 7277,
      "Ġstim": 7278,
      "with": 7279,
      "angan": 7280,
      "Ġmetu": 7281,
      "ĠPost": 7282,
      "ĠAp": 7283,
      "Ġparties": 7284,
      "Ġsuccessful": 7285,
      "igi": 7286,
      "ÈĽi": 7287,
      "Ġmm": 7288,
      "MA": 7289,
      "Ġhous": 7290,
      "Tr": 7291,
      "annel": 7292,
      "Ġcool": 7293,
      "áŁĩ": 7294,
      "Ġparam": 7295,
      "ÉĶ": 7296,
      "Ġandre": 7297,
      "ĠSub": 7298,
      "Ġwhose": 7299,
      "ĠØ§ÙĦÙħØª": 7300,
      "Str": 7301,
      "ëĤ": 7302,
      "ĠÑī": 7303,
      "hm": 7304,
      "Ġleading": 7305,
      "Ġraz": 7306,
      "istry": 7307,
      "Ġnj": 7308,
      "Ð¼Ð°": 7309,
      "Ġaiz": 7310,
      "Ġauss": 7311,
      "Ġmassage": 7312,
      "ssz": 7313,
      "Ġtelev": 7314,
      "usion": 7315,
      "Ġsistema": 7316,
      "Ġones": 7317,
      "etic": 7318,
      "ĠmÃªme": 7319,
      "Ġamin": 7320,
      "Ġgreater": 7321,
      "Ġspecif": 7322,
      "ÙĬØ±Ø©": 7323,
      "hd": 7324,
      "Ġbrain": 7325,
      "Ġspirit": 7326,
      "Ġwide": 7327,
      "tsÃ©g": 7328,
      "Ġwarm": 7329,
      "ĠProf": 7330,
      "ĠØ¥ÙĨ": 7331,
      "Ġlocation": 7332,
      "Ġsignal": 7333,
      "ĠEnd": 7334,
      "Ġachie": 7335,
      "Ġwoman": 7336,
      "Ġactive": 7337,
      "Ġpromot": 7338,
      "Ġáĭ¨": 7339,
      "Ø¯ÙĬØ¯": 7340,
      "akter": 7341,
      "jÃ¡t": 7342,
      "Ġà¨¦": 7343,
      "ĠmÅ«s": 7344,
      "ĠÒĽ": 7345,
      "Ã¤hr": 7346,
      "Ġhealthy": 7347,
      "ÑıÑĤ": 7348,
      "ners": 7349,
      "Ø§ÙĨÛĮ": 7350,
      "inÄģt": 7351,
      "ĠFrank": 7352,
      "iszt": 7353,
      "Ġbend": 7354,
      "éĽ": 7355,
      "Ġdurante": 7356,
      "Ġdetermine": 7357,
      "Ġfon": 7358,
      "Ġnoch": 7359,
      "Ġappar": 7360,
      "Ġbeste": 7361,
      "adores": 7362,
      "Ġfakt": 7363,
      "Ġfear": 7364,
      "ÙĤØª": 7365,
      "right": 7366,
      "xx": 7367,
      "Ġmir": 7368,
      "ĠÎºÎ±Î¹": 7369,
      "ĠKn": 7370,
      "ĠCalifornia": 7371,
      "rek": 7372,
      "Õ½": 7373,
      "Ġzd": 7374,
      "Ġgev": 7375,
      "Ġprofession": 7376,
      "bra": 7377,
      "ÙĲÙĬ": 7378,
      "Ġbarn": 7379,
      "ä¼ļ": 7380,
      "Ġsea": 7381,
      "adt": 7382,
      "Ġprincip": 7383,
      "Ġcil": 7384,
      "Ġsaying": 7385,
      "vik": 7386,
      "Ġmorning": 7387,
      "ĠDi": 7388,
      "ë§": 7389,
      "Ġbasic": 7390,
      "æ¸": 7391,
      "aman": 7392,
      "Ġcomun": 7393,
      "ĠÙ¾Ùĩ": 7394,
      "ĠØ§ÙĦÙĦ": 7395,
      "Å¡anu": 7396,
      "Ðľ": 7397,
      "Ġarbe": 7398,
      "ĠâĪ": 7399,
      "ĠØ¨ÙĬÙĨ": 7400,
      "ahl": 7401,
      "à¥ĩà¤Ĥ": 7402,
      "Ġaby": 7403,
      "ellig": 7404,
      "Ġkezel": 7405,
      "icy": 7406,
      "Ġprec": 7407,
      "ontos": 7408,
      "respond": 7409,
      "à¹Ħà¸": 7410,
      "Ġreleased": 7411,
      "ĠmÅ±": 7412,
      "Ġmonitor": 7413,
      "Ġalthough": 7414,
      "Ã¸j": 7415,
      "ĠOur": 7416,
      "à·Ļ": 7417,
      "Ø§Ùĥ": 7418,
      "Ġcompletely": 7419,
      "adÃ¡s": 7420,
      "Val": 7421,
      "ÑĢÐ¸": 7422,
      "Ġgrad": 7423,
      "Ġexecut": 7424,
      "ĠÕ¶": 7425,
      "ĠCong": 7426,
      "Ġmarketing": 7427,
      "ĠFacebook": 7428,
      "Ġindividuals": 7429,
      "Óĳ": 7430,
      "à®Ł": 7431,
      "Ġadvant": 7432,
      "ĠnÄĹ": 7433,
      "erna": 7434,
      "Ġsafe": 7435,
      "Ġthinking": 7436,
      "Ġappropriate": 7437,
      "Ġbul": 7438,
      "Ġbrought": 7439,
      "ivit": 7440,
      "eke": 7441,
      "Ø±ÛĮ": 7442,
      "ains": 7443,
      "pert": 7444,
      "ĠFrom": 7445,
      "Ġdownload": 7446,
      "Ġjour": 7447,
      "Ã³gy": 7448,
      "kas": 7449,
      "mus": 7450,
      "Ġà¨ķ": 7451,
      "amen": 7452,
      "Ġchat": 7453,
      "Ġrank": 7454,
      "Ġdru": 7455,
      "Ġprad": 7456,
      "ued": 7457,
      "enza": 7458,
      "áĬĵ": 7459,
      "Ġstock": 7460,
      "ĠcÃ³": 7461,
      "åĲĮ": 7462,
      "Ġcontroll": 7463,
      "sti": 7464,
      "Ġunit": 7465,
      "àº´": 7466,
      "jÅ³": 7467,
      "Ġoh": 7468,
      "Ġmist": 7469,
      "ÏģÎ±": 7470,
      "Ġcompar": 7471,
      "Ġcommercial": 7472,
      "Ġcast": 7473,
      "dien": 7474,
      "Ġfresh": 7475,
      "down": 7476,
      "Ġcontribut": 7477,
      "Ġpris": 7478,
      "ĠSur": 7479,
      "koz": 7480,
      "Ġgw": 7481,
      "Ġconfirm": 7482,
      "ëĭĪëĭ¤": 7483,
      "Ġjelent": 7484,
      "ĠÅ¼e": 7485,
      "Ġstad": 7486,
      "ĠPC": 7487,
      "ĠMat": 7488,
      "àº²àºĻàº": 7489,
      "Ġplans": 7490,
      "ously": 7491,
      "agram": 7492,
      "à®©": 7493,
      "Ġprzy": 7494,
      "yond": 7495,
      "inda": 7496,
      "ĠSuper": 7497,
      "Ġtrust": 7498,
      "oji": 7499,
      "Ġdoctor": 7500,
      "App": 7501,
      "ĠÑģÐ¿": 7502,
      "ĠÐ´Ð»Ñı": 7503,
      "ÉĻn": 7504,
      "à¤¡": 7505,
      "à·ļ": 7506,
      "ÙģØ³": 7507,
      "ĠDay": 7508,
      "èĩª": 7509,
      "á»ĥ": 7510,
      "áĢĢáĢºáĢ": 7511,
      "Ġgrund": 7512,
      "á»§": 7513,
      "Ġdark": 7514,
      "pass": 7515,
      "osh": 7516,
      "Ġsolo": 7517,
      "àº¡": 7518,
      "imÅ³": 7519,
      "Ġready": 7520,
      "Ġry": 7521,
      "ĠØªÙħ": 7522,
      "ĠSel": 7523,
      "Ġeyes": 7524,
      "ÉĽ": 7525,
      "ĠLet": 7526,
      "uoti": 7527,
      "Ð°Ð»Ð¸": 7528,
      "Ø§Ø©": 7529,
      "ĠpaÅ¡": 7530,
      "Ġhieronta": 7531,
      "Ġtum": 7532,
      "ĠÐ¹": 7533,
      "ĠBlack": 7534,
      "ĠØ§Ø³": 7535,
      "Ġà¦Ĩ": 7536,
      "ĠvÃł": 7537,
      "Ġserve": 7538,
      "Ġconstruction": 7539,
      "Ġscen": 7540,
      "kat": 7541,
      "Ġspecies": 7542,
      "ref": 7543,
      "Ġhighly": 7544,
      "Ġê²": 7545,
      "Ġdescribed": 7546,
      "Ġcha": 7547,
      "Ġà¤ªà¥įà¤°": 7548,
      "ensk": 7549,
      "osti": 7550,
      "ciju": 7551,
      "Ġsales": 7552,
      "urer": 7553,
      "Ġbeginning": 7554,
      "åĪĨ": 7555,
      "ĠgÃ¶r": 7556,
      "ĠNews": 7557,
      "gang": 7558,
      "Id": 7559,
      "nosti": 7560,
      "íķ´": 7561,
      "à¨¤": 7562,
      "áĥľ": 7563,
      "udi": 7564,
      "ÐµÐºÑĤ": 7565,
      "umber": 7566,
      "quer": 7567,
      "ä»ĸ": 7568,
      "Ġesta": 7569,
      "Ġimpl": 7570,
      "itel": 7571,
      "rix": 7572,
      "á»ģ": 7573,
      "verse": 7574,
      "izi": 7575,
      "New": 7576,
      "inÄ¯": 7577,
      "Ġcoach": 7578,
      "veik": 7579,
      "dat": 7580,
      "Ġitems": 7581,
      "Ġeset": 7582,
      "Ġgli": 7583,
      "atÃ³": 7584,
      "last": 7585,
      "ĠáĢĻ": 7586,
      "Ġmethods": 7587,
      "EO": 7588,
      "Ġdisp": 7589,
      "ĠAS": 7590,
      "ybÄĹs": 7591,
      "×Ĵ": 7592,
      "ä¸ĭ": 7593,
      "ÐºÑĤ": 7594,
      "icon": 7595,
      "Ġdied": 7596,
      "olt": 7597,
      "cos": 7598,
      "ĠÐºÐ°Ðº": 7599,
      "ĠÙĪÙħ": 7600,
      "ography": 7601,
      "ĠLand": 7602,
      "ĠTechn": 7603,
      "Ġtransl": 7604,
      "Ġwir": 7605,
      "Ð½Ð¸Ð¹": 7606,
      "Ġrestaur": 7607,
      "Ġmog": 7608,
      "brand": 7609,
      "Ø§Ø¯Ø©": 7610,
      "Õ¡Õ¾": 7611,
      "áĢ¶": 7612,
      "ĠKl": 7613,
      "?\"": 7614,
      "rip": 7615,
      "rael": 7616,
      "Ġgenerally": 7617,
      "rue": 7618,
      "à¦¯à¦¼": 7619,
      "Ġradi": 7620,
      "sal": 7621,
      "inta": 7622,
      "Ġdamage": 7623,
      "ecause": 7624,
      "Ġlines": 7625,
      "Åĳr": 7626,
      "Ġincl": 7627,
      "ĠBritish": 7628,
      "Ġkuri": 7629,
      "js": 7630,
      "ĠJa": 7631,
      "ĠÏĦÎ¿": 7632,
      "Ġvast": 7633,
      "izar": 7634,
      "ÄĹje": 7635,
      "Ġerror": 7636,
      "ĠÐ¾Ð´": 7637,
      "æĹ¶": 7638,
      "Ġoblig": 7639,
      "atok": 7640,
      "Ġtechnolog": 7641,
      "Ġgard": 7642,
      "àºģ": 7643,
      "Ġcarry": 7644,
      "Ġproduk": 7645,
      "ÙĪÙĪ": 7646,
      "ipe": 7647,
      "esi": 7648,
      "¸±": 7649,
      "uy": 7650,
      "reme": 7651,
      "ÑĭÑĪ": 7652,
      "irink": 7653,
      "ĠCompany": 7654,
      "Ġgiving": 7655,
      "Ġfab": 7656,
      "Ġclick": 7657,
      "Ã¶m": 7658,
      "Ø®Ø±": 7659,
      "imp": 7660,
      "Ġrequirements": 7661,
      "ĠvalÃ³": 7662,
      "ĠprÃ³": 7663,
      "Ġstring": 7664,
      "Ġdrink": 7665,
      "æĪĲ": 7666,
      "Ġphone": 7667,
      "uden": 7668,
      "Ġà¤¯": 7669,
      "Ð³Ð°Ð½": 7670,
      "ocol": 7671,
      "ĠVis": 7672,
      "Ġmicro": 7673,
      "Ġpoor": 7674,
      "â¸±": 7675,
      "ÑįÐ½": 7676,
      "rÃ¡": 7677,
      "Ġbaby": 7678,
      "ĠUK": 7679,
      "Res": 7680,
      "æ¬": 7681,
      "Ġcompared": 7682,
      "alis": 7683,
      "Ġattack": 7684,
      "Ġconfig": 7685,
      "Ġprze": 7686,
      "æĮ": 7687,
      "aled": 7688,
      "Ġjsou": 7689,
      "Ġelimin": 7690,
      "Ã¡lnÃŃ": 7691,
      "bin": 7692,
      "Ð»Ðµ": 7693,
      "áĢ¹áĢ¸áĢ": 7694,
      "Ġà¦®": 7695,
      "Ġprod": 7696,
      "Ġtul": 7697,
      "Ma": 7698,
      "Ð°Ð»Ð°": 7699,
      "Ġfaz": 7700,
      "Ġpied": 7701,
      "oren": 7702,
      "uren": 7703,
      "ÏĦÎ·": 7704,
      "Ġtools": 7705,
      "ëıĦ": 7706,
      "rea": 7707,
      "dag": 7708,
      "Ġorganization": 7709,
      "Ġmeer": 7710,
      "Ġconstant": 7711,
      "Type": 7712,
      "Ġthus": 7713,
      "ked": 7714,
      "æĿ¥": 7715,
      "Ġemployees": 7716,
      "Ġjaun": 7717,
      "ancy": 7718,
      "emi": 7719,
      "Ġsatisf": 7720,
      "Ġtouch": 7721,
      "ĠnÃ¥r": 7722,
      "Ġdiab": 7723,
      "elser": 7724,
      "Ġellen": 7725,
      "Ġà¨¸": 7726,
      "win": 7727,
      "ë¦¬": 7728,
      "Ġdv": 7729,
      "ĠÐ¿ÑĢÐµÐ´": 7730,
      "æĸ¹": 7731,
      "Ġserver": 7732,
      "cribe": 7733,
      "Ġotr": 7734,
      "àŃĩà¬": 7735,
      "ĠJo": 7736,
      "ovi": 7737,
      "Ġreasons": 7738,
      "å®¶": 7739,
      "Ġnamed": 7740,
      "à¤¾à¤®": 7741,
      "ÃŃl": 7742,
      "inos": 7743,
      "'h": 7744,
      "Ġbroad": 7745,
      "ĠResearch": 7746,
      "more": 7747,
      "Ġprincipal": 7748,
      "AA": 7749,
      "Ġdegree": 7750,
      "ĠCommission": 7751,
      "ĠÙħØ¬": 7752,
      "ĠáĮ": 7753,
      "ĠEngland": 7754,
      "Î¼Î±": 7755,
      "Ġalkal": 7756,
      "áī°": 7757,
      "Ġkre": 7758,
      "áĥĲáĥĵ": 7759,
      "IF": 7760,
      "å¦": 7761,
      "bes": 7762,
      "enses": 7763,
      "ovo": 7764,
      "Ġgran": 7765,
      "Ġvas": 7766,
      "ÄĹd": 7767,
      "ĠBus": 7768,
      "Ðĺ": 7769,
      "aty": 7770,
      "api": 7771,
      "Ġdess": 7772,
      "ville": 7773,
      "orte": 7774,
      "ilder": 7775,
      "asse": 7776,
      "odes": 7777,
      "Ġmest": 7778,
      "isse": 7779,
      "ĠMichael": 7780,
      "Ġkos": 7781,
      "Ġsequ": 7782,
      "Ġà¹": 7783,
      "nel": 7784,
      "ĠService": 7785,
      "ĠìĿ´": 7786,
      "ĠØ¬ÙĬ": 7787,
      "à¥įà¤µ": 7788,
      "ĠÐ¥": 7789,
      "azi": 7790,
      "ĠAlex": 7791,
      "Ġdispos": 7792,
      "ĠtÃ¶rt": 7793,
      "Ġframe": 7794,
      "çķ": 7795,
      "Sp": 7796,
      "ÙİÙĦ": 7797,
      "aca": 7798,
      "order": 7799,
      "Ð°Ñİ": 7800,
      "Ġcampaign": 7801,
      "ĠáĢĢ": 7802,
      "Ġsad": 7803,
      "PR": 7804,
      "Ð¸ÑĩÐµÑģÐº": 7805,
      "ĠKa": 7806,
      "Ġproviding": 7807,
      "Ġbek": 7808,
      "ications": 7809,
      "çº": 7810,
      "awa": 7811,
      "Ġpon": 7812,
      "ĠMit": 7813,
      "igned": 7814,
      "orial": 7815,
      "Ġhear": 7816,
      "Ġwife": 7817,
      "Ġsummer": 7818,
      "Ġcapt": 7819,
      "aku": 7820,
      "Ġexcept": 7821,
      "ĠPan": 7822,
      "Ġnames": 7823,
      "ulo": 7824,
      "actions": 7825,
      "bÃ³l": 7826,
      "avimo": 7827,
      "ĠLou": 7828,
      "àºģàº": 7829,
      "Ġmemory": 7830,
      "áŀ¢": 7831,
      "ĠGroup": 7832,
      "Ġcra": 7833,
      "Ġhebben": 7834,
      "Ġmehr": 7835,
      "ws": 7836,
      "oval": 7837,
      "ĠjÅ³": 7838,
      "fen": 7839,
      "ĠSee": 7840,
      "Úª": 7841,
      "Ġearlier": 7842,
      "istan": 7843,
      "Ġsalt": 7844,
      "Ġintens": 7845,
      "Ġlabai": 7846,
      "Ġcaused": 7847,
      "ĠÅĽ": 7848,
      "Ġoverall": 7849,
      "ĠLord": 7850,
      "ĠGal": 7851,
      "inf": 7852,
      "Ġcorpor": 7853,
      "Ġnett": 7854,
      "ĠLeg": 7855,
      "à©°": 7856,
      "âĢĻr": 7857,
      "ĠHot": 7858,
      "Ø¨Ø©": 7859,
      "Ã§o": 7860,
      "oles": 7861,
      "fficient": 7862,
      "Ġpacient": 7863,
      "ĠFrench": 7864,
      "ojo": 7865,
      "Ġsymptoms": 7866,
      "udd": 7867,
      "ahr": 7868,
      "Ġincome": 7869,
      "çŃ": 7870,
      "Ġkro": 7871,
      "Õ¥ÖĢÕ": 7872,
      "rated": 7873,
      "àª¿": 7874,
      "Ġfir": 7875,
      "amil": 7876,
      "hes": 7877,
      "Ġvec": 7878,
      "Ġdirection": 7879,
      "ĠÐ¾Ñģ": 7880,
      "áŀ¼": 7881,
      "ÑĥÐ¿": 7882,
      "ytt": 7883,
      "ĠsÃº": 7884,
      "kon": 7885,
      "ĠFebruary": 7886,
      "ĠMi": 7887,
      "à´°": 7888,
      "Ġperman": 7889,
      "Ø¹Ùħ": 7890,
      "Ġtraditional": 7891,
      "iÃ©n": 7892,
      "ÑĭÐ¹": 7893,
      "fu": 7894,
      "usta": 7895,
      "è¨": 7896,
      "Å¾io": 7897,
      "ĠEt": 7898,
      "Ġinvestment": 7899,
      "cksÃ¥": 7900,
      "Ġestablish": 7901,
      "That": 7902,
      "open": 7903,
      "Ġplaces": 7904,
      "Ðł": 7905,
      "ĠRem": 7906,
      "ĠÙħØ±": 7907,
      "ĠvÃµ": 7908,
      "Ó©Ð½": 7909,
      "Me": 7910,
      "Ġtent": 7911,
      "uba": 7912,
      "ÐĶ": 7913,
      "ĠGold": 7914,
      "reci": 7915,
      "rupt": 7916,
      "Ġdead": 7917,
      "csol": 7918,
      "Ġconstit": 7919,
      "Ġcollection": 7920,
      "ĠÃ¶ssz": 7921,
      "Ġpiece": 7922,
      "orsz": 7923,
      "ajÄħ": 7924,
      "Ġmachine": 7925,
      "false": 7926,
      "ĠUnivers": 7927,
      "'il": 7928,
      "ÐµÑģÑĤÐ²": 7929,
      "Ġring": 7930,
      "imal": 7931,
      "à¥ģà¤": 7932,
      "Ã¼nd": 7933,
      "Ġalap": 7934,
      "Ġproduced": 7935,
      "Ġmotiv": 7936,
      "Ġequipment": 7937,
      "uis": 7938,
      "Ġfrem": 7939,
      "ÛķÙĨ": 7940,
      "Ġallowed": 7941,
      "anna": 7942,
      "Ð½ÑĭÐ¹": 7943,
      "ĠÄģr": 7944,
      "ĠvÃ¤l": 7945,
      "Ġnombre": 7946,
      "Ġwww": 7947,
      "ĠprostitÅ«t": 7948,
      "terior": 7949,
      "'n": 7950,
      "à¶§": 7951,
      "Ġfollowed": 7952,
      "ĠInformation": 7953,
      "Ġorg": 7954,
      "Ġessential": 7955,
      "Ġtherap": 7956,
      "Ġspl": 7957,
      "Ä¾": 7958,
      "çĤ": 7959,
      "stÃ¥": 7960,
      "ÐµÑħ": 7961,
      "âĢĻm": 7962,
      "Ġexercise": 7963,
      "Ġveget": 7964,
      "ĠGeorge": 7965,
      "Ġskr": 7966,
      "åĺħ": 7967,
      "ĠBank": 7968,
      "à¸£à¸": 7969,
      "×Ĺ": 7970,
      "ea": 7971,
      "Ġfederal": 7972,
      "uty": 7973,
      "Ġmassasje": 7974,
      "Ġbenefit": 7975,
      "Or": 7976,
      "Ġantib": 7977,
      "Ø®Øµ": 7978,
      "Ġskulle": 7979,
      "ĠCollege": 7980,
      "à©ĭ": 7981,
      "Ġvin": 7982,
      "Ġml": 7983,
      "®à¯į": 7984,
      "Ġprostitu": 7985,
      "Ġresponsible": 7986,
      "ĠlÃ¡": 7987,
      "ĠRom": 7988,
      "ÅĽÄĩ": 7989,
      "Ġhaj": 7990,
      "Ġuw": 7991,
      "Ġpier": 7992,
      "åķ": 7993,
      "Ġmyself": 7994,
      "æĽ": 7995,
      "Ġderes": 7996,
      "ossz": 7997,
      "Ġelements": 7998,
      "ĠpÅĻed": 7999,
      "ĠocksÃ¥": 8000,
      "oven": 8001,
      "Ġinitial": 8002,
      "Ä«m": 8003,
      "Ġdouble": 8004,
      "enger": 8005,
      "Ġtrat": 8006,
      "Ġliel": 8007,
      "Ø¥ÙĨ": 8008,
      "Ġprotection": 8009,
      "ĠMo": 8010,
      "Ġwood": 8011,
      "çĦ": 8012,
      "otta": 8013,
      "burg": 8014,
      "à¶½": 8015,
      "àª®": 8016,
      "Ġexperiment": 8017,
      "Ġnotice": 8018,
      "anden": 8019,
      "Ġhop": 8020,
      "Ġoppos": 8021,
      "Ġheard": 8022,
      "áĢ¡": 8023,
      "ĠáĢŀ": 8024,
      "Ġseven": 8025,
      "elem": 8026,
      "idir": 8027,
      "ĠÄ¯s": 8028,
      "liv": 8029,
      "àª¤": 8030,
      "ĠEv": 8031,
      "Ġerot": 8032,
      "Ġhospital": 8033,
      "Ġinput": 8034,
      "Ġauto": 8035,
      "Ġforsk": 8036,
      "anced": 8037,
      "Úµ": 8038,
      "Ġresist": 8039,
      "Ġkans": 8040,
      "Ġfaire": 8041,
      "Su": 8042,
      "iling": 8043,
      "ĠLeague": 8044,
      "ÄįnÃŃ": 8045,
      "ç«": 8046,
      "Ġemp": 8047,
      "tid": 8048,
      "lick": 8049,
      "ĠtambÃ©m": 8050,
      "ĠcÄĥ": 8051,
      "ĠØ§ÙĦÙĦÙĩ": 8052,
      "ÅĨem": 8053,
      "Ġreserv": 8054,
      "áĥ¢": 8055,
      "Ġfunk": 8056,
      "ĠÃ©p": 8057,
      "ĠtÃ¤": 8058,
      "à©±": 8059,
      "Å«k": 8060,
      "ĠÐ¼Ð¾Ð¶": 8061,
      "ĠelsÅĳ": 8062,
      "ĠzÃ¡": 8063,
      "ĠÙĪÙĬ": 8064,
      "ĠÐºÐ¾Ð¼": 8065,
      "Ġestablished": 8066,
      "Ġprimary": 8067,
      "Ġradio": 8068,
      "Ġimmediately": 8069,
      "Ġfiles": 8070,
      "ports": 8071,
      "Ġpit": 8072,
      "Ġcommunication": 8073,
      "ading": 8074,
      "Ġrecon": 8075,
      "ĠÛ": 8076,
      "áĢĿ": 8077,
      "ĠrÃ©sz": 8078,
      "assen": 8079,
      "Ġpret": 8080,
      "Ġeffort": 8081,
      "ĠÚ©ÛĮ": 8082,
      "ÑĨÑĸ": 8083,
      "ĠStreet": 8084,
      "edz": 8085,
      "Ġfully": 8086,
      "ÙĦØ§ÙĦ": 8087,
      "áĢħáĢºáĢ": 8088,
      "yright": 8089,
      "TH": 8090,
      "Ġtempo": 8091,
      "ĠPress": 8092,
      "Ġwy": 8093,
      "éĸ": 8094,
      "Ġalbum": 8095,
      "ĠSta": 8096,
      "Ġstarting": 8097,
      "akan": 8098,
      "ĠpÄĵc": 8099,
      "ĠÃģ": 8100,
      "Ġcharge": 8101,
      "Ġë§": 8102,
      "rind": 8103,
      "Ġlaws": 8104,
      "Ġcontains": 8105,
      "×Ļ×Ļ×": 8106,
      "Ġmovie": 8107,
      "ĠCommun": 8108,
      "Ġmg": 8109,
      "Ġlooks": 8110,
      "Ã¨res": 8111,
      "Ġgraph": 8112,
      "Ġsources": 8113,
      "Ġsteps": 8114,
      "Ġreports": 8115,
      "à°²": 8116,
      "´à¸": 8117,
      "Ðĳ": 8118,
      "Ġmoved": 8119,
      "Ġvotre": 8120,
      "Ġincor": 8121,
      "Ġoutput": 8122,
      "Ã¶z": 8123,
      "Õ¯": 8124,
      "tais": 8125,
      "à¦¾à¦°": 8126,
      "Ð½Ð¸Ðº": 8127,
      "Ġuseful": 8128,
      "Ġpaid": 8129,
      "ÑģÐ¿": 8130,
      "ĠÃĸ": 8131,
      "Ġjis": 8132,
      "arbe": 8133,
      "Der": 8134,
      "imus": 8135,
      "aron": 8136,
      "ÄĹtÅ³": 8137,
      "ĠâĨ": 8138,
      "Ġerr": 8139,
      "rai": 8140,
      "Ġaps": 8141,
      "ajo": 8142,
      "ĠÃ©rt": 8143,
      "Ġneb": 8144,
      "ĠBay": 8145,
      "box": 8146,
      "Ġingred": 8147,
      "PA": 8148,
      "ĠBre": 8149,
      "Per": 8150,
      "ĠÐ°ÑĢ": 8151,
      "çĻ": 8152,
      "Ġdab": 8153,
      "à²Ĺ": 8154,
      "ĠÙĬØ¹": 8155,
      "Ġfej": 8156,
      "Ġvaik": 8157,
      "Ġtemperature": 8158,
      "ĠvÅ¡": 8159,
      "obe": 8160,
      "ĠSoci": 8161,
      "ninger": 8162,
      "Ġ==": 8163,
      "Ġvom": 8164,
      "Ġattract": 8165,
      "ĠfÃ¥r": 8166,
      "tos": 8167,
      "Ġtool": 8168,
      "Ġmoving": 8169,
      "ĠbÃ¶r": 8170,
      "ĠÏĦÎ¿Ïħ": 8171,
      "Ġrequires": 8172,
      "Ġtiss": 8173,
      "æľ¬": 8174,
      "Ġpull": 8175,
      "Ġearth": 8176,
      "Ġthai": 8177,
      "àªµ": 8178,
      "ĠUN": 8179,
      "Å¼y": 8180,
      "Ġnerv": 8181,
      "ä½ľ": 8182,
      "Ġtin": 8183,
      "abol": 8184,
      "êµ": 8185,
      "urrent": 8186,
      "Ġhid": 8187,
      "×¢": 8188,
      "umn": 8189,
      "Ġcorrespond": 8190,
      "Ġwasn": 8191,
      "åĶ": 8192,
      "Ġexcell": 8193,
      "Ã¡si": 8194,
      "Ġimages": 8195,
      "ĠkÃ¶nnen": 8196,
      "Ã¶ra": 8197,
      "Ġdomin": 8198,
      "ĠÅ¾mon": 8199,
      "Ġrev": 8200,
      "ĠØªØ±": 8201,
      "Ġhaben": 8202,
      "Ġhac": 8203,
      "Ġcours": 8204,
      "imai": 8205,
      "Ð´Ðµ": 8206,
      "ÐµÐ½Ð¸": 8207,
      "Ġzn": 8208,
      "Ġsupply": 8209,
      "ĠÒ»": 8210,
      "ÙģØ±": 8211,
      "Ġsegu": 8212,
      "nya": 8213,
      "Ã´ng": 8214,
      "Ġvend": 8215,
      "Ġcab": 8216,
      "ĠAk": 8217,
      "erer": 8218,
      "dÃ©s": 8219,
      "Ġgenom": 8220,
      "uls": 8221,
      "ãĢĮ": 8222,
      "Ġsuk": 8223,
      "Ġinnov": 8224,
      "ĠÑģÐ¾": 8225,
      "Ġilm": 8226,
      "Ġcommand": 8227,
      "Ġrot": 8228,
      "bro": 8229,
      "Ġalone": 8230,
      "Õ¡Õ¯Õ¡Õ¶": 8231,
      "Ġjums": 8232,
      "ÑĥÑĪ": 8233,
      "mitted": 8234,
      "Ġhotel": 8235,
      "ÑĥÐ±": 8236,
      "Ġauk": 8237,
      "Ġhos": 8238,
      "Ġanche": 8239,
      "éĺ": 8240,
      "ãĢį": 8241,
      "ĠÄ«": 8242,
      "ĠÐºÐ¾Ð½": 8243,
      "icks": 8244,
      "Ġadapt": 8245,
      "Ġrapid": 8246,
      "Ø¹Ø¶": 8247,
      "Ġwerd": 8248,
      "Ã³z": 8249,
      "Ġtodos": 8250,
      "ĠSom": 8251,
      "ĠST": 8252,
      "ĠTor": 8253,
      "è¾": 8254,
      "Ab": 8255,
      "atus": 8256,
      "vÃ©": 8257,
      "ĠEast": 8258,
      "eria": 8259,
      "ĠFlor": 8260,
      "à®³": 8261,
      "ĠBi": 8262,
      "Ġzwe": 8263,
      "roz": 8264,
      "lÃ¤": 8265,
      "ĠAlso": 8266,
      "ÑģÑĮ": 8267,
      "Ġgem": 8268,
      "Ġgyak": 8269,
      "Ã©z": 8270,
      "tag": 8271,
      "Ġjos": 8272,
      "fri": 8273,
      "ĠSund": 8274,
      "ĠDas": 8275,
      "ĠMary": 8276,
      "Ġgirl": 8277,
      "ĠgÃ©n": 8278,
      "asion": 8279,
      "Ġsoll": 8280,
      "BS": 8281,
      "aughter": 8282,
      "Ŀi": 8283,
      "Ġchanged": 8284,
      "iers": 8285,
      "heim": 8286,
      "ered": 8287,
      "ilor": 8288,
      "ĠSil": 8289,
      "lÃ©": 8290,
      "Cont": 8291,
      "Ġsolid": 8292,
      "ĠUm": 8293,
      "Î½Î±": 8294,
      "Â·": 8295,
      "Ġsubs": 8296,
      "iale": 8297,
      "Ð°ÑĢÑĭ": 8298,
      "ĠhÃ¡": 8299,
      "Ã¥l": 8300,
      "lies": 8301,
      "áĥĶáĥľ": 8302,
      "Ġpolice": 8303,
      "ĠÐ¾ÑĢ": 8304,
      "ĠTHE": 8305,
      "ĠÑģÐµ": 8306,
      "Ġregister": 8307,
      "ĠÃ¡ltal": 8308,
      "Ġbem": 8309,
      "ege": 8310,
      "ossa": 8311,
      "acion": 8312,
      "Ġmont": 8313,
      "rich": 8314,
      "Ġagreement": 8315,
      "ĠMas": 8316,
      "à«ģ": 8317,
      "uose": 8318,
      "ĠParis": 8319,
      "Ġeer": 8320,
      "BA": 8321,
      "Ġhour": 8322,
      "ĠÎ¿": 8323,
      "Ġelle": 8324,
      "Ġfeeling": 8325,
      "Ġami": 8326,
      "ieder": 8327,
      "ĠOut": 8328,
      "Ġgets": 8329,
      "ÏĥÎ·": 8330,
      "Ġdirector": 8331,
      "Ġquarter": 8332,
      "Ġspeak": 8333,
      "Ġknew": 8334,
      "vit": 8335,
      "Ġrepe": 8336,
      "Ġthreat": 8337,
      "lÄ±": 8338,
      "ningar": 8339,
      "ÅĻe": 8340,
      "Ġsociety": 8341,
      "Ġinfl": 8342,
      "CO": 8343,
      "ÃŃtÃ©s": 8344,
      "ĠÃ¢": 8345,
      "Ġnej": 8346,
      "Ġandra": 8347,
      "Ġhappen": 8348,
      "Ġmaz": 8349,
      "Ġfiz": 8350,
      "Ġkunnen": 8351,
      "Ġìĭ": 8352,
      "ĠMont": 8353,
      "eken": 8354,
      "asp": 8355,
      "Ġpero": 8356,
      "Ġclin": 8357,
      "Ġaward": 8358,
      "ĠHall": 8359,
      "Ġelectric": 8360,
      "ĠPlan": 8361,
      "Ġforms": 8362,
      "riz": 8363,
      "ÙĪØ²": 8364,
      "Ġtempor": 8365,
      "ĠpaÃŃs": 8366,
      "ĠTex": 8367,
      "elet": 8368,
      "Ġargument": 8369,
      "Ġessay": 8370,
      "owe": 8371,
      "Ġeye": 8372,
      "aught": 8373,
      "Ġwall": 8374,
      "ÅĨa": 8375,
      "Ġmental": 8376,
      "Ġeat": 8377,
      "Ġcreating": 8378,
      "Ġfinish": 8379,
      "Ġbeyond": 8380,
      "Ġfigure": 8381,
      "ppe": 8382,
      "Ġign": 8383,
      "Ġesp": 8384,
      "Ġia": 8385,
      "here": 8386,
      "osc": 8387,
      "Ġrule": 8388,
      "mt": 8389,
      "eling": 8390,
      "Es": 8391,
      "Ã¦k": 8392,
      "è½": 8393,
      "ÛĮØ¯": 8394,
      "Ġaussi": 8395,
      "ĠnÃŃ": 8396,
      "Ġiesp": 8397,
      "Ġoperation": 8398,
      "Ġgrant": 8399,
      "Ġvac": 8400,
      "Ġyr": 8401,
      "Ġvalst": 8402,
      "Ġquel": 8403,
      "level": 8404,
      "ĠgyÃ³gy": 8405,
      "aje": 8406,
      "Ġprotein": 8407,
      "inÄĻ": 8408,
      "ĠÐºÐ¾ÑĤÐ¾ÑĢ": 8409,
      "aran": 8410,
      "ĠItal": 8411,
      "Ġcada": 8412,
      "à¼ĭà½ĸà½": 8413,
      "ivi": 8414,
      "venue": 8415,
      "ÐµÑĤÑģÑı": 8416,
      "?âĢĿ": 8417,
      "Ġà¨¹": 8418,
      "ĠmÃ³d": 8419,
      "Ġharm": 8420,
      "Ġverw": 8421,
      "uno": 8422,
      "Ø·Ø©": 8423,
      "DF": 8424,
      "Ġbow": 8425,
      "Ġturned": 8426,
      "vere": 8427,
      "rain": 8428,
      "áº¹": 8429,
      "mel": 8430,
      "Ġvair": 8431,
      "wr": 8432,
      "à¹ĥ": 8433,
      "Ġspent": 8434,
      "kite": 8435,
      "Ġnegative": 8436,
      "Ð¸Ð¿": 8437,
      "Ġhall": 8438,
      "iders": 8439,
      "Ġmiddle": 8440,
      "Ã¡rt": 8441,
      "lib": 8442,
      "isu": 8443,
      "ĠInst": 8444,
      "neh": 8445,
      "àªķ": 8446,
      "ë©": 8447,
      "UM": 8448,
      "Ġplanning": 8449,
      "Ġspread": 8450,
      "Ġjej": 8451,
      "ĠÙĬÙħÙĥÙĨ": 8452,
      "ĠRobert": 8453,
      "itat": 8454,
      "Ġmovement": 8455,
      "ëł": 8456,
      "×ĲÖ¸": 8457,
      "ÙİÙĨ": 8458,
      "Ġeight": 8459,
      "Ġthous": 8460,
      "ĠdÃ¤r": 8461,
      "Ġdevices": 8462,
      "Ġ:=": 8463,
      "Ġcollege": 8464,
      "Man": 8465,
      "uga": 8466,
      "ĠGreen": 8467,
      "bur": 8468,
      "hetÅĳ": 8469,
      "vil": 8470,
      "ĠØ£Ùĥ": 8471,
      "word": 8472,
      "lav": 8473,
      "àº·": 8474,
      "à¦¸": 8475,
      "ĠBa": 8476,
      "Ġconserv": 8477,
      "Ġunt": 8478,
      "jÄħ": 8479,
      "¨àµįà´¨": 8480,
      "jel": 8481,
      "Õ¥Õ¶": 8482,
      "Ð¸Ð½Ð¸": 8483,
      "ibly": 8484,
      "áĥĲáĥ¡": 8485,
      "ìĿ¸": 8486,
      "ĠÎ³": 8487,
      "Ò¯ÑĢ": 8488,
      "âĢĻest": 8489,
      "ĠÐĹ": 8490,
      "Ġearn": 8491,
      "Ġgrowing": 8492,
      "ĠsÃŃ": 8493,
      "cipl": 8494,
      "Ġhans": 8495,
      "Ġbesch": 8496,
      "Des": 8497,
      "Äĵja": 8498,
      "oyal": 8499,
      "EG": 8500,
      "agi": 8501,
      "ĠMot": 8502,
      "ĠCD": 8503,
      "àºĶàº": 8504,
      "ĠÅŁi": 8505,
      "Ġvida": 8506,
      "áŀľ": 8507,
      "Ġdesp": 8508,
      "isme": 8509,
      "ĠsÃ¸": 8510,
      "Ġefforts": 8511,
      "ĠEven": 8512,
      "Ġschools": 8513,
      "place": 8514,
      "uen": 8515,
      "Ġlarger": 8516,
      "Ġà¤ļ": 8517,
      "Ġvisual": 8518,
      "OC": 8519,
      "Ġhyp": 8520,
      "ĠØ§ÙĦÙħÙĨ": 8521,
      "Ġoslo": 8522,
      "ÑħÐ¾Ð´": 8523,
      "Ã¡rio": 8524,
      "ĠáĢĲ": 8525,
      "ĠChinese": 8526,
      "Ġket": 8527,
      "ĠQue": 8528,
      "ÙĩØ¯": 8529,
      "ĠTest": 8530,
      "ikel": 8531,
      "vad": 8532,
      "ĠettÃ¤": 8533,
      "ĠkÃ©sz": 8534,
      "Ġà·Ģ": 8535,
      "áģµ": 8536,
      "à·ĥ": 8537,
      "df": 8538,
      "ĠkÃ©t": 8539,
      "Ġnearly": 8540,
      "Ã«n": 8541,
      "Ġreplac": 8542,
      "ĠfaÊ»": 8543,
      "Ġcontext": 8544,
      "Ġkurie": 8545,
      "Ġly": 8546,
      "Ġkul": 8547,
      "osen": 8548,
      "ĠLatv": 8549,
      "àªĤ": 8550,
      "Ġcontinued": 8551,
      "RA": 8552,
      "ellt": 8553,
      "Ġrock": 8554,
      "ĠâĢĻ": 8555,
      "ĠÙĤØ¯": 8556,
      "ç½": 8557,
      "Ġej": 8558,
      "Ġsup": 8559,
      "Ġcontro": 8560,
      "Ġsecret": 8561,
      "Ġinterested": 8562,
      "à¨¨": 8563,
      "Ġnaudoj": 8564,
      "Ġstre": 8565,
      "Ġpoll": 8566,
      "insi": 8567,
      "Ġexisting": 8568,
      "à»į": 8569,
      "ìľ¼": 8570,
      "ĠÙħØ³": 8571,
      "Ġinstrument": 8572,
      "ķáĢ¼": 8573,
      "Ġassum": 8574,
      "Ġconnection": 8575,
      "Ø«ÙĦ": 8576,
      "iac": 8577,
      "Ġmilitary": 8578,
      "áĢĦáĢºáĢ": 8579,
      "ĠÄ¯v": 8580,
      "ï¼ī": 8581,
      "Ġagg": 8582,
      "ìĽ": 8583,
      "inct": 8584,
      "While": 8585,
      "ĠBit": 8586,
      "Ġstation": 8587,
      "uÅ¡": 8588,
      "ÅŃ": 8589,
      "Ġsugar": 8590,
      "ĠGer": 8591,
      "ÙħØ¯": 8592,
      "Ġazon": 8593,
      "ĠId": 8594,
      "ĠÑĤÑĢ": 8595,
      "Ġneigh": 8596,
      "Ġvirus": 8597,
      "ķáĢ«": 8598,
      "umus": 8599,
      "ãģı": 8600,
      "icate": 8601,
      "Ġlargest": 8602,
      "SP": 8603,
      "ĠnÃ¡": 8604,
      "Ķà¸": 8605,
      "åŁ": 8606,
      "Ġverb": 8607,
      "áĥĲáĥłáĥ": 8608,
      "heit": 8609,
      "rus": 8610,
      "Ġgaz": 8611,
      "Na": 8612,
      "ĠArch": 8613,
      "Ġeconomy": 8614,
      "ternal": 8615,
      "Äģcijas": 8616,
      "ĠÎ½Î±": 8617,
      "ĠOver": 8618,
      "å¾Ĺ": 8619,
      "ÑĥÐº": 8620,
      "åģ": 8621,
      "ĠHen": 8622,
      "ikos": 8623,
      "ĠìĹ": 8624,
      "ĠlÃ¸": 8625,
      "ķàµįà´ķ": 8626,
      "rap": 8627,
      "ĠChurch": 8628,
      "ï¼Ī": 8629,
      "ĠmÃ¼": 8630,
      "ĠcÃ©l": 8631,
      "Em": 8632,
      "ĠØ³ÙĬ": 8633,
      "ĠEle": 8634,
      "ĠAM": 8635,
      "Ġà¤ı": 8636,
      "Ġrelevant": 8637,
      "Ġdiz": 8638,
      "ĉĉĉ": 8639,
      "Ġkost": 8640,
      "Äįius": 8641,
      "ØŃÙĬ": 8642,
      "Ġestud": 8643,
      "SA": 8644,
      "à¤Ł": 8645,
      "alm": 8646,
      "aram": 8647,
      "Ġspot": 8648,
      "ĠRepublic": 8649,
      "ĠJan": 8650,
      "×Ľ": 8651,
      "Ġkval": 8652,
      "iken": 8653,
      "Ġdecre": 8654,
      "à¬¨": 8655,
[...]
